/**
  ******************************************************************************
  * @file    small_net_fp32_data_params.c
  * @author  AST Embedded Analytics Research Platform
  * @date    2026-03-17T22:42:17+0100
  * @brief   AI Tool Automatic Code Generator for Embedded NN computing
  ******************************************************************************
  * Copyright (c) 2026 STMicroelectronics.
  * All rights reserved.
  *
  * This software is licensed under terms that can be found in the LICENSE file
  * in the root directory of this software component.
  * If no LICENSE file comes with this software, it is provided AS-IS.
  ******************************************************************************
  */

#include "small_net_fp32_data_params.h"


/**  Activations Section  ****************************************************/
ai_handle g_small_net_fp32_activations_table[1 + 2] = {
  AI_HANDLE_PTR(AI_MAGIC_MARKER),
  AI_HANDLE_PTR(NULL),
  AI_HANDLE_PTR(AI_MAGIC_MARKER),
};




/**  Weights Section  ********************************************************/
AI_ALIGNED(32)
const ai_u64 s_small_net_fp32_weights_array_u64[49107] = {
  0x3f40e083bf29d3d9U, 0xbf0e42f5be73453aU, 0xbeed45443f7909c6U, 0x3f8712b9bf546f54U,
  0xbedb1da8bedce223U, 0xbe5f3a993f171a2eU, 0x3f56afabbf4863baU, 0xbf11e09bbe887523U,
  0xbe88d0bc3f581ad6U, 0xbe34460b3f02c281U, 0x3f39b4b3be5e374bU, 0xbe4c29cbbe8dc277U,
  0xbe910c7e3f2a22f1U, 0x3e9ace93be8eaa35U, 0x3e08e359be3ebd61U, 0x3e28d58d3f6460aaU,
  0x3ed1aad43efa72caU, 0xbdc40b5bbe853cbaU, 0xbf24f3d3bdedd92dU, 0xbf616e18be414573U,
  0xbf72f32cbf9f1e21U, 0xbd33a90d3da6b0eaU, 0xbbedfa5c3e2828c9U, 0x3e4c50113edadb2aU,
  0x3f8a7090bd9bf7acU, 0xbedf79493f16a921U, 0xbdd9041b3e4efa29U, 0xbe1e07f53f8fef7bU,
  0x3e87c0ccbf2865dfU, 0xbe45769a3dafb11dU, 0x3f5b27d4bf95aff0U, 0x3f9f7547bc38281fU,
  0xbec6e543bf0f1b1cU, 0xbf0fcad1be1b45b2U, 0xbf89fe623e215f19U, 0x3ea889b93f4254a5U,
  0xbef69d853f739f23U, 0xbdf4bca0be132158U, 0x3f0d2dc3becd2672U, 0x3f000b8ebfa909e1U,
  0x3f2983553ee1fb0aU, 0xbdd2946bbe38d40cU, 0x3d41296ebec278dcU, 0xbe80f57bbe446bf2U,
  0x3e07561f3e908c97U, 0xbf0301cb3f1d1317U, 0x3ef097cdbd425e36U, 0x3e48a5ad3e0b87c2U,
  0xbdfe3f943e7e599fU, 0x3eca50763ab04bf8U, 0x3ef64d21beebf6ddU, 0xbeef87bdbd486c8bU,
  0x3e67ed133d4680d4U, 0x3a28d421be950780U, 0xbdeac6d0bf3bea5bU, 0x3f092db6be9ffd7eU,
  0x3ef5b89a3f094be6U, 0xbe60189e3e53eabbU, 0x3e96cd0ebe30aa80U, 0x3ee2ba443f18eea9U,
  0xbe7c9a7b3e643c1eU, 0xbea24db9be3b38ccU, 0xbec3dd20bf24056cU, 0x3db0a3e4bd134970U,
  0xbea6e0ebbdba324dU, 0xbf0b3b2fbf0583e9U, 0x3f10015f3defb7f7U, 0x3ee654073f45186aU,
  0x3dfe693d3e4d2418U, 0x3db0c6aabe700dffU, 0xbe9079af3e20f406U, 0xbeb18d5ebe66d0f5U,
  0xbf0879c6be977da2U, 0x3f59532fbf297c5fU, 0x3f3bc0cc3f11a9deU, 0x3d73f417bee40c12U,
  0xbe921e42bd27986cU, 0x3e996ff33e2e90d4U, 0xbf2c93a2ba94d5f8U, 0x3e84f3d4bf1f7359U,
  0x3eb90bfc3eb6d308U, 0x3e505288be5ae6cdU, 0xbecd5a2cbcdcc46eU, 0x3cb244043e92aa39U,
  0x3dacac513e5a542dU, 0xbe9cf50abe1f241bU, 0xbcee642c3e72edf4U, 0x3eb949f3bf0ca71bU,
  0xbe5ce04a3e6e5405U, 0xbc74ff353d9d0cdaU, 0x3e9a46d9be71e802U, 0xbf1ef7c43dfdbc19U,
  0x3e3385d73e6742d0U, 0x3df9f7313cdaf954U, 0x3de4f8e93db2cf56U, 0xbc970205bd81b3f2U,
  0xbff97b803fabd98dU, 0xbe96ed7c3f7c9c5aU, 0xbdc4fad23e987e81U, 0x3e4b5703beb1a0c8U,
  0x3fef47013de3bb68U, 0x3f0273aec01c19b7U, 0x3ea05fe6beb6f8bcU, 0xbeccb0543d5e946cU,
  0xbec329223f37ddddU, 0xbf9f115a3f20c480U, 0xbede36a53f3094abU, 0xbec4c98d3f319c9dU,
  0xbd6880263eb69d97U, 0x3efeec8cbf0da05dU, 0xbec8d3273ecce99aU, 0x3e271b45bec1e6e3U,
  0xbe67d579becf5ab6U, 0x3ed570f93f3421d2U, 0x3f470d41be29e7e5U, 0xbecde3d13ebeec10U,
  0x3e43e75d3f0baf94U, 0x3d33e773bf5d824bU, 0xbf273fc23e083096U, 0x3d5a5a36bcb12a76U,
  0x3d5584b4be926e09U, 0xbc626cccbe986d6dU, 0x3da487623c584d71U, 0x3e07c94c3e449b5aU,
  0x3e3d89f13db16277U, 0x3dfac0bf3e2cadf0U, 0xbe0137d4bdcc1698U, 0x3daf95873d87cf62U,
  0x3d06ca56bd0dc699U, 0x3d77fb433da2c149U, 0xbd6b10dd3de2e34eU, 0x3d9e48b1be8b622fU,
  0xbec30431bd8501ecU, 0xbdd330a5bdda2f44U, 0xbe35e8b4beb48f49U, 0x3f9b4560bf4c3f3dU,
  0x3f0ade16be3f1e1aU, 0xbea80620bf56a480U, 0xbf91f7103f4bb521U, 0xbf8bf9723f19e00dU,
  0xbee549f53fb7ba3fU, 0x3dbb77883eec6076U, 0x3f39d26f3e4a5e41U, 0xbe23380ebfb76ff0U,
  0x3f9e6519bfb9ebebU, 0xbe4e5e2fbd680e18U, 0x3f00e5b33e470e79U, 0xbf43c3f03f861438U,
  0xbd8b2157be1c39baU, 0xbd7e01f1be9828a6U, 0xbe5553e8be571e6aU, 0x3e501f03be046357U,
  0x3df39b0e3de3e2dcU, 0xbebfadefbe950a6eU, 0xbd3e0e35be568920U, 0x3e0c7c873e32f092U,
  0x3e2e4d4f3d8f61bbU, 0x3dd1d5c43cdcc8beU, 0xbcf62a903bfebadcU, 0x3eb1fd6e3e9d7ecaU,
  0xbd08aa113e889fcbU, 0xbdb99130bd330644U, 0xbfa9833e3f4ac10cU, 0xbf3273403f602d94U,
  0xbd870d213eb45468U, 0x402303e6bfc03031U, 0x4011b11cbf88e5bdU, 0x3f19aceac030f614U,
  0xbe8f1df5bc9921bdU, 0xbf8e31813f1bb66bU, 0xbf72bdf33fe60081U, 0xc0026a5a3f8ec13aU,
  0x3e7bbb763f401122U, 0x3e9ddf8fbe774babU, 0x3fe4997abf72e001U, 0xbf602acabf7dbff4U,
  0x3f563932bdab868aU, 0xbf66bbc43e21a51fU, 0xbf8e63163f659874U, 0x3dc83fd13f492b8cU,
  0xbfbca7043f76db4aU, 0x402ffab53e6f8c7fU, 0xbd036034c05d7a30U, 0xbeec54793ec31f00U,
  0xbe81d5bbbddf1ffbU, 0x3f5f0f95bf0a3fe7U, 0xbfb3b7c33f7b11eeU, 0xbedae25e3f1b0fe2U,
  0x3ec392703e43c5fdU, 0x3ebcf3e2beeb6ea2U, 0xbec40cab3dd0f47eU, 0x3dc0a0bcbf1fab0dU,
  0xbe6dc1643cb9f197U, 0xbdf8e4c63e8ad066U, 0xbe86bf673d14c457U, 0xbed4d2303f8d3d78U,
  0x3f3c42463f1b5b61U, 0x3cfcad41bf280344U, 0x3ec2662abc2b077cU, 0x3f0688aebdedfd1aU,
  0x3dcd6bb9bf6615ddU, 0xbf0a11bb3e612a3cU, 0x3c9295ba3ea3a0ebU, 0x3dc794d33e366fc1U,
  0xbe930beabe8ea443U, 0x3e1a2e6dbe975c5bU, 0x3e017b0b3e384d10U, 0x3e9f54bc3e3beeddU,
  0xbed526c93e897f32U, 0xbee21031bee4985bU, 0x3e5dc1163ea6fbefU, 0x3ddd41063e811eedU,
  0x3e27b9f03e246076U, 0xbe819fa2bed035cbU, 0x3e657408be757270U, 0x3d76b5563d4c784bU,
  0xbe4ed8cb3f47d918U, 0xbf11bc87bd076eb1U, 0xbd6c6a5abcab4716U, 0x3dfebd223f369a4dU,
  0x3d4399ffbe628483U, 0xbcdd4dccbdca4f20U, 0xbfaed464be359f91U, 0xbd044258bdda5f19U,
  0xbdbd2d203e054745U, 0x3d8384c2bd72dc48U, 0xbd9f55c23dfd443aU, 0xbe0274533e0cfc0eU,
  0xbd8b7bcfbcffebddU, 0x3c612dd7be061e91U, 0x3db465bdbd2459c9U, 0xbe1a46cb3e24ce7dU,
  0x3e3cce823dc236aeU, 0x3b4c3461be347a79U, 0xbe3c0fdbbe5dad4aU, 0xbeb172ecbb777f7eU,
  0xbda8e7073cacb83dU, 0xbe5a661dbe5dff12U, 0x3e3d47a0bed0e5faU, 0xbe6de4c7bdb8ad1eU,
  0xbe1d0e86bda56245U, 0xbe5d80d4bd0e2faaU, 0xbdb27d60be9057e1U, 0x3e7356a7bdbc8a7eU,
  0xbd02f7f53d97f031U, 0x3c82295b3da82f34U, 0xbd367566bed0f183U, 0x3ccfa5d7bba3cf6fU,
  0xbe378d95be6f4a85U, 0xbdb58fe13d2d9344U, 0xbcd881d43e1fa020U, 0x3ec4136bbd930628U,
  0x3d20e522bd74ba29U, 0x3d8a7184bc111cc5U, 0xbe4b68653c4ce652U, 0x3e084c883b995eb4U,
  0x3db3836d3e03bc06U, 0x3e8d023dbd585c1eU, 0x3e76a3e73e420dfaU, 0x3e0521e6bcb5b413U,
  0xbe06c0fdbdf68869U, 0x3e26784b3d422f5cU, 0xbde966703ea6fa1cU, 0x3dbbb1d33e8897dbU,
  0xbe3d83edbd4a7e2dU, 0xbbbd9728bd54c991U, 0xbe1da47cbdde8cbeU, 0xbea12f123d3b1041U,
  0xbda1117d3ddc337dU, 0xbe86beb1bd9bad6dU, 0x3e6e7b9cbd39d04dU, 0x3d504b4dbe99c654U,
  0x3cc440cd3d18e67bU, 0xbd8004cfbd4dcde1U, 0x3b33f168bcb885c8U, 0xbe85ab3fbcdbd929U,
  0xbc0235b93d686659U, 0xbdb230e83cfeddfbU, 0x3d648f3abca2453cU, 0xbc235bb6be2d7e24U,
  0xbd96d49ebeb09598U, 0x3c20755c3e13ac3cU, 0xbcf4d0523d990875U, 0x3ea0ca20be04447bU,
  0xbd9d0b3dbe79bd99U, 0x3d0f7bf23d31fee9U, 0xbe9f40e7ba431035U, 0x3d5090813e198b97U,
  0x3d807ad73e90dc60U, 0xbd2e6e65bc91d024U, 0xbe1527cfbc3cf230U, 0xbdb4c0db3e0dcfecU,
  0x3db6b6933db0a065U, 0x3d9ed6acbd87c4c8U, 0x3df286c9be67ca0dU, 0xbcc9ec65bb13f841U,
  0xbd7c20bebe1daec2U, 0xbd3022c33c65ccadU, 0x3e0ef813bcee7d80U, 0x3de29fd5be26fd47U,
  0x3dea29a5be0cd91bU, 0x3cfd5acbbc0cd8d7U, 0xbdc6d2e2bd0e8f7aU, 0x3cbed67e3d02c4c6U,
  0x3dd6cd91bdae7540U, 0x3e153424baec70c7U, 0x3d3dc3873d3fa104U, 0xbc18c482bea1ce3eU,
  0xbdaea529bdf0fc51U, 0x3b8a585ebd186fc6U, 0xbe2633f1bd4b7d78U, 0xbdd2dab83e6bb842U,
  0xbd40e62fbd244ce7U, 0x3e2b68b23d91cccaU, 0xbd1819003df741acU, 0x3e0ca46bbcea13d4U,
  0xbd0efed23db23771U, 0x3db074693dbf3135U, 0xbe125fbd3c940258U, 0x3df343a93d7fae00U,
  0xbc9ee08e3c3eb57aU, 0xbc5532abbd43d4dcU, 0x3dfc60c8bd2983abU, 0xbd365fbd3e258fcfU,
  0x3d6a06a7bc758417U, 0xbdf50b0c3d35d237U, 0x3e017814bdfbe383U, 0xbd0d3e79bd998ee1U,
  0xbd9d047fbd5702afU, 0xbd82e333bdc58b5fU, 0xbd0a86b33c515937U, 0x3d4d007dbd25edfbU,
  0x3dbff1aebe31df4cU, 0xbdc3efa2be4555e8U, 0xbda14695bd2890ebU, 0xbdc21dfbbe61eb8aU,
  0xbd8ef9443e0b494fU, 0x3d9a21f5bbd735c9U, 0xbd4643543d5f6ec0U, 0xbcfe54c53dc19cb4U,
  0xbc93777cbc3f341aU, 0xbc983acbbdcc189aU, 0x3d2613743bacc3b0U, 0xbe32f5f23e1799e8U,
  0xbc74420a3dd2f24cU, 0x3d7ccdf03d32f582U, 0x3dbe531ebd35a92dU, 0xbd873a233da76314U,
  0x3b5278f43dad0aaaU, 0xbd4221643cab1755U, 0x3d96c7ba3d85f97fU, 0x3c957b74bd16e63eU,
  0xbcc723833d88edb1U, 0xbe1310a23ddb1a86U, 0x3d0d45bf37b5ac12U, 0xbd4146963e432424U,
  0x3d9806babde44a3fU, 0x3d03396b3e245241U, 0x3dd66f773d161b0aU, 0x3e0f38d6bd66fc0bU,
  0xbe2287c1bb8847e3U, 0xbe4bbbf53b032664U, 0xbce6bd39bc581d43U, 0xbdc746b93d16c1baU,
  0x3d4bbc46bd229073U, 0xbd261db5bdf0551eU, 0x3e2b1c09bd54f5fdU, 0x3d519c13be217483U,
  0x3c8060f8bcea8f6cU, 0x3c3b5cacbe2b112fU, 0x3d652288bc5ab3fdU, 0x3c9f50d6bde77ec2U,
  0x3d403c6bbd3bfff9U, 0xbc9f2201bdedc508U, 0x3d902e12be58e73bU, 0x3d0fd6813db0e0e6U,
  0x3d2b56263bc9c0daU, 0xbd1ff636bdb11e6eU, 0x3d2a3ea4bd48ebcfU, 0x3d95da893dc2b805U,
  0x3d5a8d6abce7404fU, 0xbcaa5c10bd75491eU, 0xbd854318bc97b293U, 0x3d243fc53d9596b6U,
  0xbd55d2a23e0deaeeU, 0xbd1ba1833dacd313U, 0x3de4790fbd0b00b9U, 0xbe0302883e80835dU,
  0xba819ef2bdd0250aU, 0x3cc84939bc1283b9U, 0x3d05c98d3d948495U, 0x3d3d74bdbe2ea55dU,
  0x3dcde07abe3f558dU, 0xbbebe049be86fce8U, 0xbaca8a2a3c976d8aU, 0x3d9cea55bdf3cd67U,
  0xbd6f7e9ebe4d116dU, 0xbd7e397ebcc330a5U, 0x3dc2f4ecbe1258eaU, 0x3d26f7e7bd953766U,
  0x3d2337ad3cd1939aU, 0x3d123f03bda4f713U, 0x3d02ea8f3c770cdeU, 0xbdc1bc46bd87961aU,
  0x3cfb1b423d97d172U, 0x3c02579dbdd82253U, 0xbd88838ebc90e2b3U, 0x3c455063bd25e5caU,
  0xbd2311423ded6c3cU, 0x3d833ad43c476792U, 0x3db297ec3cfe4e7eU, 0xbc8c8f823e029e72U,
  0xbd9e20e4bd3f3884U, 0xbbe2ac9a3d31432fU, 0xbccc3de6bb80a697U, 0x3c2676d7bcfe7835U,
  0x3db4dddebe0acd24U, 0x3d8f5317be1b898fU, 0xbd79b501b9c92c47U, 0x3d2381b9be612637U,
  0x3e05fd09bd2898b9U, 0xbb89ce58be5bf34aU, 0x3d0f5c13be07ff84U, 0xbe623c9f3e5ba621U,
  0xbc39ca7bbdc81d77U, 0xbc01a815bda5b8cbU, 0xbdca3d4b3db11e92U, 0x3c3fe094bda95245U,
  0xbd64a5dfbc5761c6U, 0x3c8fc069be08cf4aU, 0xbddf21d2be10464bU, 0xbdfcd9b839a4beefU,
  0xbae24f563dcb6937U, 0xbd22d6ce3d9bbccaU, 0xbd3f79dc3dbaf5ffU, 0xbca096f93db0ad91U,
  0x3cc2beb23cdd1637U, 0x3d4ebcadbd24f586U, 0xbcadd28a3d81c4ceU, 0x3cacec6ebe097b3aU,
  0xbd7086d8bdcdcd32U, 0x3ce48928bcb1ea66U, 0xbdda217b3c1ba688U, 0xbd3a602ebc1b0adbU,
  0x3c0288e23d968510U, 0xbd1a7ba73d267fc4U, 0x3d2a0e87bd336aecU, 0xbc0befcf3ce08d8eU,
  0x3d808e463dde5650U, 0xbdb1ea3b3ce6c95dU, 0xbc22ab5abd9b9d6cU, 0xbdb69b893defb38cU,
  0x3dc090a23ce2daecU, 0x3ccaa796bbec4cd8U, 0x3e06d37cbd24277cU, 0xbc3b2315bd710137U,
  0x3cd0024b3adc495dU, 0xbdacafd8bdc788a6U, 0x3e2dd74bbc62ec4dU, 0xbe8cae733dbfeedbU,
  0x3d6e2fa8bcf069c3U, 0x3cd9b070bdd987beU, 0x3ddea3f8be3e8652U, 0xbd0a10e7be1e0eafU,
  0xbd1ba7323e3cd38cU, 0x3e0b699dbd5f07deU, 0xbe0a51fe3ae8cacdU, 0xbdc66e04be13cd0dU,
  0x3d78af16bd3242b8U, 0xba7c1dc1bca1481fU, 0x3d0bac273cc17b41U, 0xbe10fb2c3e04d587U,
  0x3e37ff893e2bfaadU, 0x3c170555bd7fca8eU, 0xbdfa57eebd9ba2c0U, 0x3ceaaac4be8a2787U,
  0x3d40b0953bf82d0aU, 0xbdd9835ebc30c114U, 0xbda6c56a3de3a2faU, 0xbe1bf8c03e149c07U,
  0x3dc4cb3e3d3a9b77U, 0xbc5138613e35718dU, 0x3da427cdbdde6f53U, 0x3d51a694bc3d8f3aU,
  0xbbc2d77e3bd771f9U, 0xbc6b3536be001160U, 0xbdbe40733e61cd88U, 0x3d432accbbbeb45eU,
  0x3e158daebe9dd293U, 0x3d70596dbd33354eU, 0xbdee6afe3e31b41aU, 0x3e1963c9bcbda4dfU,
  0xbd1cbb30bd4556c0U, 0xbd055ab2be26398eU, 0x3d07ea9bbe0b99b0U, 0xbe0402a0bbe1f421U,
  0x3e6a056abd98e7a1U, 0xbc8e5e5bbd2c6afaU, 0x3bcba6dc3d0e3112U, 0x3ccdb0403eb11b83U,
  0xbdbfdaedbdc32442U, 0xbd1d72edbd13ad69U, 0xbd6eb0babe2851e8U, 0xbdc9a9f3bc649058U,
  0x3da6d78bbd74fde5U, 0x3b07b621bdaa6580U, 0x3db566a9bdb5d711U, 0x3e7fb3a63d1553a3U,
  0xbcd3d66b3da5cdf4U, 0xbd91ca873e1e3d52U, 0xbd5cb423bce14865U, 0x3d803b0ebc9b87caU,
  0x3c7b01423d92a0cfU, 0xbe049245bd38a1bbU, 0xbdeb1bedbcc8d55dU, 0xbd90814a3d0b5c08U,
  0xbd9cf2b53da3179dU, 0xbd5c09403bc1ce5bU, 0x3db55071be58a5faU, 0x3d657c5dbba9b364U,
  0xbd5be87cbe5210afU, 0x3de4624f3a52b86aU, 0x3dc3ab5f3d7469a2U, 0x3f03a8b1bcb34d25U,
  0xbd46be27bdfe4a75U, 0xbca323273c0c233cU, 0xbe9546f03e375742U, 0x3c399ea03e370af9U,
  0x3d449d063ddc17baU, 0x3bcb59693cf45ddaU, 0x3b88b378bd5c7368U, 0xbe8340d53d92a6a0U,
  0x3c3005223ccdb5fcU, 0xbce49c87bd4f0162U, 0x3e0b1a88bdc99929U, 0xbd14fcd4be4b93cfU,
  0x3d2eaab53e3383f6U, 0xbd320d423cf3aa0eU, 0xbdb4f4f5bd882f97U, 0xbe9885853c9af7bcU,
  0x3c9bda883da1f70bU, 0xb906f757bda7063dU, 0x3d95faa43cb8c9b2U, 0xbcea8eb4bddbf61fU,
  0xbe142bfbbe9dc99eU, 0xbc97db91be1384a8U, 0x3dd721fabd6483ffU, 0x3e698a46bd802dcfU,
  0xbda98803bdd699eeU, 0xbda047c23dc5fbb8U, 0xbdf7262fbdfffe4cU, 0x3dbc048f3dee2d3fU,
  0x3cd99db43e3252c9U, 0x3c4d328e3bbd18c9U, 0x3d4ac28fbcd21582U, 0xbe124b0bbcc69753U,
  0x3d90a482bb42f7a5U, 0x3c86f356be1d866cU, 0xbd2d28883d2535c4U, 0x3d501acabd6e1ae6U,
  0x3cd3f4193da9e2e4U, 0x3dab2006bca393e5U, 0xbd44b7a13d55f067U, 0xbe064d573cc28034U,
  0x3d488c31bccf436cU, 0x3d95401cbda1ee06U, 0x3df1e50cbdd51c6dU, 0xbd0a222bbd79d0e5U,
  0xbdc67231bd98f90eU, 0xbcaa05983d6329f2U, 0x3c17ab4a3ce78184U, 0xbd0f211a3c23e4c1U,
  0xbda8b5423d10f0b6U, 0x3c600deb3d6218d2U, 0xbd6789793d2cf716U, 0xbc085cbf3db2ca8dU,
  0x3cb7d74dbd9874b5U, 0x3c2543b63cb78dbbU, 0x3cf91332bcb194f2U, 0x3c80f1e7bd3bec86U,
  0x3dc335f9be115fe0U, 0xbd09362cbd0a6beaU, 0xbbf0a1d93d6608a5U, 0x3d5b21f7bd7aac51U,
  0xbd36a2903dcb03f9U, 0x3e6cc883bdc7575cU, 0x3ddc7a703dcda097U, 0xbcdab8b13d9d9f96U,
  0xbd24c707bc8577b6U, 0x3df6610bbb3b4865U, 0x3d9d9a973d473471U, 0x3e0698f93dc54a55U,
  0x3cbe4ba33d648549U, 0x3db4802a3d20c951U, 0x3dbe36903cc398c4U, 0xbda33ae93d5545b1U,
  0x3e06e482bcd563faU, 0xbdf4bf823daf3274U, 0xbdd5170a3d66dc5bU, 0x3dd4e546bdbd022fU,
  0xbd40cb943d16c5a5U, 0x3e08af1b3d17c483U, 0x3da9d8fd3e1d2b10U, 0x3d454832bc8ec3d5U,
  0x3d4b1c87bd4a34d8U, 0xbb81d9953d8351b5U, 0xbd049166bd0c66b0U, 0x3e13e1e93c50a7c1U,
  0xbac2d1b2bca45a0fU, 0x3db77233bdd38581U, 0x3d1380913d19f483U, 0x3bb923f2be0d1f71U,
  0xbe4df8a2bd253a4fU, 0xbd9f58cdbd863177U, 0xbd9958f7bdcd43b4U, 0xbd6a0e923e28487dU,
  0xbe001ab8bdfbd94dU, 0xbe00d09fbe544c64U, 0xbdc4875cbd98825aU, 0xbd88e51cbd74a85fU,
  0x3de4b0e63cc53ff7U, 0xbeee7fcabe48c73eU, 0xbbc5ff11be43a3b4U, 0x3cffd2b4be7e1726U,
  0xbdaf3985bb972698U, 0xbd448d88bdca665aU, 0xbc8c7881bcfc1f16U, 0xbbe2c56cbc117b2cU,
  0xbd993097bdb90ea3U, 0xbe3c8e27bd9d275dU, 0xbd605e813d10e06bU, 0xbda403c63a40d0b4U,
  0xbd8f900dbdfc8a56U, 0xbd2f95ec3d92b82bU, 0xbc667b14bd8200d7U, 0x3e163f2abd38488dU,
  0x3cef6751bde40afdU, 0xbe549c693c3e6b60U, 0xbd611913bd1b0e04U, 0x3c75b48a3ccd2d2eU,
  0x3d986361bdaa1695U, 0xbe11a855bd851313U, 0xbd6712dcbd1ae28aU, 0xbdb4010abdc0a67cU,
  0x3e0782cdbdef2455U, 0x3d73f2fcbe1086c8U, 0x3d8106aebdf9859dU, 0x3c362018bcbdab17U,
  0xbdba2fc03cd95796U, 0xbe2aeb563d289450U, 0xbdae7dc13c68eae8U, 0x3d82314f3df2da1bU,
  0xbb36df22bd714781U, 0x3e2ac90bbe210de6U, 0x3d78cece3d9ac320U, 0xbc3fa9d73cad6987U,
  0xbd2f5d853d7b5ff1U, 0x3dc714cc3d6c17e6U, 0xbda0bed13dfde323U, 0x3c3513b93c39d016U,
  0xbdb483b63d6d8ca6U, 0x3df73e39ba44c71eU, 0xbc264189be262640U, 0x3d4fb1a5bd208461U,
  0x3d3ebebe3d7ec1faU, 0x3e1e4e023d2de83bU, 0xbdca6fc93e04e6edU, 0x3e0e66ca3ceacce9U,
  0x3de6f091bda971aaU, 0xbcc6d4a1be8ae65fU, 0x3c46e877bc77b066U, 0x3bc14e46bd38e20bU,
  0xbdad4a703c34d1bdU, 0xbd12e541bd13f1a9U, 0xbdbacea93d9b17b7U, 0xbdf5055c3d4174dfU,
  0xbc18bed9be054bafU, 0xbd172059be428a95U, 0xbd45a5693d47f147U, 0xbd4df3e93d894e10U,
  0xbe367e30bde2168bU, 0xbe209502be62e1d2U, 0x3c72c677bda7f356U, 0xbd4d886dbd5b5d61U,
  0xbdc25d6cbcd65109U, 0xbd910808bdca69cdU, 0xbd91c888be44ab98U, 0xbdceda473d7d633bU,
  0x3d7f654e3d831ec5U, 0xbccce957bd0588fcU, 0x3e2630fb3d2cc39aU, 0xbdec7f7fbd528c02U,
  0xbea844a33d901163U, 0x3d87f7833ec19904U, 0x3e69a114be7f1aa3U, 0xbe021a2e3c5a203aU,
  0x3de57606bd2bf68eU, 0x3b182325bd12adc8U, 0x3e287db1bb98c9baU, 0x3e1cb538bd562a16U,
  0x3e4015c03b595aa5U, 0x3e0d5eb0be895526U, 0xbdef0f41bdaab2a6U, 0xbde4a490bd2f2434U,
  0x3d29ee243dfbbd71U, 0xbd2de1ab3d459b36U, 0x3d1ed4afbe395866U, 0x3c6944f93c8d12eaU,
  0x3e660428bc858a9bU, 0xbdadc6d53dcf4d96U, 0x3b2b84203dae6b10U, 0x3d01d80bbdfa3632U,
  0xbe059786bdd6e72dU, 0xbd108bbbbe53e213U, 0x3c834b50be84647fU, 0xbdc2a9293dbdba18U,
  0x3d2a0ea3be144c93U, 0xbe93dafdbe9329faU, 0xbce7db573e0d8993U, 0xbcc14ab5bdde29c2U,
  0x3ce088a1be209d34U, 0x3d3a6001bcfda2d8U, 0x3db06e33bdc92bdaU, 0x3cc0404bbdd92723U,
  0xbe06d1f83c281bc6U, 0xbe2e740e3e706e4cU, 0xbe0437d2bc1a095dU, 0x3dd21b9c3e2f0463U,
  0x3d3b9903be495e05U, 0x3d80a804be9588a7U, 0xbe1a58b0be93ca56U, 0x3d9a0ce7be87254fU,
  0x3e0a953b3a538982U, 0xbe4bf39cbe9dca1eU, 0xbdf3512fbe3bbe23U, 0xbeaaeffa3cb224faU,
  0xbe3edcd2bd7e39ebU, 0x3cce9fe3be352871U, 0x3cf9ca3ebe80c19aU, 0x3d1e0ea1be1d2d0fU,
  0x3a97b0b93cffea60U, 0xbe1b0425bd4fa22cU, 0x3cf3b2d9bcbe60c7U, 0xbec1b05f3dd95a8bU,
  0x3dbd3e433e71fe16U, 0x3dfc4e953e1b0408U, 0x3cac380ebd1ca723U, 0x3d01e5013e02c439U,
  0xbdfc7bfc3cecdd27U, 0x3dc0e48c3df31ac7U, 0xbd7571243e0bf512U, 0x3e01cf9f3da0f825U,
  0x3defec5f3d46fb38U, 0x3d1cac22bde1bb60U, 0xbd58046d3dfc669bU, 0x3cb1301e3e1b5ffeU,
  0x3d0a63e6bde1158fU, 0x3d4256233d03a056U, 0x3d95c3773d589d6fU, 0xbd7b289b3deb33f4U,
  0xbe005c31be165087U, 0xbe409f99be9a8929U, 0xbe9383f6bea01772U, 0xbe01d9b5bdbd87fdU,
  0xbce589273d2e435cU, 0xbeb98ff3be5b6747U, 0x3c7f17bfbed4f37eU, 0xbf0c0ec8be8186a3U,
  0x3e012b5abc4b6faeU, 0x3d0c53f0bdbf70c5U, 0xbdd0a31abe18f94aU, 0xbc8bfd2bbe0147a2U,
  0x3ba61ae63d4e2214U, 0xbe5a912cbdf941beU, 0x3d0a451fbdb8b2e9U, 0xbef780ae3d2d4357U,
  0xbd755413bc1f1447U, 0xbd00be9c3def525aU, 0x3e0f326c3d41036aU, 0x3ce087083d51c45dU,
  0x3de28d33bd855723U, 0x3df32d5d3e1f742fU, 0xbca10e5a3ccd135aU, 0x3e28da513c415817U,
  0xbc95cccd3cc11c0dU, 0xba392af43d6fdc1aU, 0x3cf6a5c03da905fbU, 0x3d17917b3e0123fcU,
  0xbcd4e94ebd9e1380U, 0x3dab03bf3e07f3acU, 0xbd14f2193d3b4d4cU, 0x3e543e9dbc4fd659U,
  0x3d05fca13d147fd3U, 0xbc5b72fcbd922647U, 0x3cc8559abdc8aecaU, 0xbd60c6363d96d33fU,
  0xbbd9ad18bc30a37aU, 0xbe44eccebdd9954fU, 0x3d203feabdca1d98U, 0xbd0145dfbdbde107U,
  0xba83c0c53d7ef6feU, 0x3e7e265e3d55524cU, 0xbd1cfdc2bdc31528U, 0xbe5025373e1bc2deU,
  0xbe3690893ce6b13dU, 0x3df385ffbd1fafa9U, 0x3d638c353d957fa3U, 0xbcccb76b3c54202dU,
  0xba3b54c43e87f2c1U, 0x3e86cd16bdc39f54U, 0xbe0902cebe1a9283U, 0xbe67108c3e37021bU,
  0x3cb269383d07ac6bU, 0x3e11df0a3dff51dbU, 0x3c04394dbe99f49aU, 0xbc4b79af3e275c9fU,
  0xbd376496bd81b853U, 0xbcd920babdb1532fU, 0x3c32c351bd726449U, 0x3d179a2e3d03100fU,
  0x3d4b4c57be0f840cU, 0xbdc4c0393d8d35e8U, 0xbd9a0720bd0f717dU, 0xbd6580c7bd5ac92fU,
  0xbd0c377dbde41441U, 0x3d4c973cbe80944dU, 0xbcdd6a7b3d80d9faU, 0x3d8c7f41be99ad42U,
  0xbc2c662bbe0fef80U, 0xbeba2a0cbe7bfb3aU, 0xbe23af8bbca1ef1aU, 0x3d0fd33abb2279fbU,
  0x3d10dcd4be27a617U, 0xbe4e3d29bd80822fU, 0x3db914123c5e816eU, 0x3e4a0748be72a1e6U,
  0x3d44696cbdc2d37dU, 0xbeb5086abe7d7a3eU, 0xbe77f5b13e4c693bU, 0xbd19f29bbe36ac97U,
  0xbd5850f13ccac90fU, 0xbd88ff393ac18d3bU, 0x3e1dcfb2bc46cf59U, 0x3d9746cbbceb8269U,
  0xbd8166313d484a4bU, 0xbdc552103a9cec2eU, 0x3d63cbcb3e01833cU, 0x3daa367a3c757124U,
  0x3e18cfb6be49867aU, 0xbe4867203dbde2b8U, 0x3c07b42e3d74e75bU, 0x3dc679dbbded4754U,
  0x3deb513abe132e2eU, 0x3e19e3793d69d72cU, 0x3ba8fd9cbdeada6dU, 0xbd83ec03bdd1077dU,
  0x3cc5fadd3cec83beU, 0xbcc914f03cf8320eU, 0xbd71049a3e0eea0dU, 0xbd9880be3d77d737U,
  0x3cfc51603cf0d23bU, 0x3e26f9f2bd0eaa1dU, 0x3dbd2db7be009817U, 0xbc20989c3e0a791dU,
  0xbe626e3bbc67c226U, 0xbda7e7213d833934U, 0xbd48aeb5bb8f612fU, 0xbd4d93fa3d6f7b3dU,
  0xbd7c2bc5bc42ed1cU, 0x3d8ca423bdb3ca79U, 0x3d6e0bdcbd52ed00U, 0x3d03e1cfbd68732cU,
  0xbdcbc6e7bdaddf6dU, 0xbd1797993e240a4aU, 0xbe1c00c2be80f6beU, 0xbdaa9441bce7afc0U,
  0xbc98ad35bd17b00eU, 0xbe3755babdbf76f6U, 0xbc85c71f3d896769U, 0x3e278cb6bdd484b9U,
  0xbe78d370bdb8e7c2U, 0x3de057413c2503fdU, 0xbe1e4940bda837d6U, 0xbdaf57c1be1721d1U,
  0x3d5547ddbc4de6b9U, 0x3c16ced8bd991acfU, 0xbb1d6183bd0b0572U, 0xbda17ff8bdd519ebU,
  0x3dece1c3be0bab23U, 0x3de06502bcf9dc58U, 0xbd8ac5713e22aa7cU, 0xbd73ec90be9a6fb6U,
  0xbbe015ebbc85cce2U, 0xbe01545dbe9bbbe3U, 0x3c70ea37bdd8580bU, 0xbe45fb81bc22eb08U,
  0x3d8d055e3dca6085U, 0x3c09bfabbe10d1aeU, 0x3bee231f3d959751U, 0x3ecdd9073e167f3fU,
  0x3c53f317be22d5d6U, 0xbd1ab8483e63098cU, 0xbddf5895bdcbe88dU, 0xbdfe18173e434f5dU,
  0x3ca1ebacbe867415U, 0x3e93fd5c3e0ee91cU, 0xbcc7327d3dab7b10U, 0x3f2074c13d82203eU,
  0x39ad127ebe28200aU, 0xbcf6593c3cef1f5fU, 0xbd14d9a93ecc8905U, 0xbe4791c23e47033cU,
  0xbd32763dba9eca84U, 0xbcb824083cc799efU, 0xbc8a0c81bd70dbc0U, 0x3e785cef3e35860eU,
  0xbcbc660f3d9797a1U, 0x3e1e6377bcece8e0U, 0x3d7f38963e4622abU, 0xbe4601743ca082f1U,
  0x3a51d9eb3e0ced7cU, 0xbd667b023c0c09ecU, 0x3cc2b5193c6b5ca2U, 0xbed55c4b3e14e2feU,
  0x3d0ee503bc301636U, 0x3dd689a1be035e3fU, 0x3e3ba4863d265c26U, 0x3e2adc10be3163abU,
  0x3d24ab2e3e6b87a5U, 0xbea0d022be2e2d4dU, 0x3e2215223d165171U, 0xbeee1202bd7fd469U,
  0x3d7ee8443c81ad11U, 0x3ddd1735bc13d790U, 0x3dbe174cbea22e43U, 0x3dd7219d3d4420ceU,
  0xbb9235283e080062U, 0xbe767c31bda865d1U, 0x3d6ddc683d37e7cbU, 0xbeb0dd673dd987deU,
  0x3ceb860a3d14f56fU, 0xbda940f03de8e606U, 0xbadf3dd0bece1c68U, 0xbc9cda65bd3ce6ecU,
  0x3d0b817fbe54d946U, 0x3d05a5b33d49e496U, 0x3c9c18653d6fe831U, 0x3dd63e6cbd8a8e63U,
  0xbdc490e9bd02a766U, 0x3d45f102bda1fb31U, 0x3c324a783d86f71dU, 0x3cb73c673d79d53dU,
  0xbd7e5268bdd8a94cU, 0xbdefd0eabddce8c5U, 0xbdeee4e2be06fc0aU, 0xbe590ddcbdf1f58cU,
  0x3bfac3463d3de62eU, 0xbe241c6abdbc8ef8U, 0x3e39d130be91141eU, 0xbd217d46be85d794U,
  0xbe51a607bd8a2cd8U, 0xbe7470d33cd7f670U, 0xbd32ae33be27eda5U, 0xbd3e8f42be0b576bU,
  0xbd47bc37bc38bfbfU, 0xbd843a27bda4451fU, 0x3e29aeb4be622e3eU, 0x3d4394c9beaff877U,
  0x3d85cb2a3e40d8bdU, 0x3d8604123d6044ddU, 0x3c84e69d3d55526aU, 0xbcafd1de3e5f5dd2U,
  0x3de52344bb2a4d31U, 0x3ba813fcbd3765cdU, 0xbcd90c88bd0ad4faU, 0xbd20e8103d7afca1U,
  0x3b0316c23dcd9ee8U, 0xbdd76f6f3d0b26a3U, 0x3d12056cbd45ad64U, 0xbe1bcf523e8149dcU,
  0x3c7ba9ab3ca1f0f4U, 0x3e006a9cbd713085U, 0x3e4a54543d280720U, 0x3c9f96c63d1603b7U,
  0xbd0dce463d67ee24U, 0xbd01deb5bd326b6dU, 0x3d74a6cabd7d02d7U, 0xbe2f8fc73ea43566U,
  0xbdbe05603d6ac005U, 0xbdb27fe9bdfb9ff6U, 0x3e7abc81bd751e4eU, 0xbdce19a9be4afec2U,
  0x3d872ec2bd918e0dU, 0x3e6a797bbe0149c7U, 0x3d354b2a3db6d290U, 0x3e2b6d8ebe8f3644U,
  0x3d5f8bfabca1e7adU, 0xbbeed3b03d92caadU, 0xbe22dc303d9e5545U, 0xbcc8f0113e116944U,
  0x3d87f760be01047aU, 0xbb9d3d8fbde4676bU, 0x3b7b919b3d128a1dU, 0x3dda9d11be244a6fU,
  0xbd6582cd3d27aef8U, 0x3a170ae13d01f080U, 0xbe8d1c54bd52701bU, 0x3bd8c99b3e0b10c9U,
  0x3d2974f03e3aa978U, 0x3e37b919bcf54562U, 0x3de50c2bbb9bbccbU, 0x3dcda9d8be038d04U,
  0x3e153fdebc89fd6bU, 0x3d6e13203d1f0b04U, 0xbe64eb963deab843U, 0x3d9cf4163e24cd4bU,
  0x3bea12b7bca4547cU, 0x3d9eedc8bd14bf0bU, 0xbca9e65fbd94c25cU, 0xbd611d4ebdb16bc1U,
  0x3d81eaf0bcedc0c9U, 0xbbbd2ddb3d5cbab3U, 0x3caf9ad2bd81f571U, 0xbcb801b33d1296dcU,
  0xbd66b6ff3d527ef0U, 0xbc4b92c4bb4c1383U, 0xbdad2d443d7a851cU, 0xbd18f479bd00df4bU,
  0xbcc8b8683d1403c8U, 0xbc9a0f77be30863dU, 0xbcdcd571bd9a119dU, 0xbdc2d1653dca1331U,
  0x3c5973e03dbde170U, 0x3d046981bd1c53f5U, 0xbc98acf33e5b2f8aU, 0x3d0033153d9b83dbU,
  0x3d2f7712bba1692aU, 0x3ddc082b3d8262abU, 0x3ce70498bd99e3b0U, 0xbc172c083d8ee4f3U,
  0xbe72bd85bdc1238bU, 0x3ca1a6a7bcd0fbe9U, 0xbe6bd303beb38b09U, 0x3e0998aebe3f51bfU,
  0x3d8c0017bcb6ba59U, 0x3d1b36c4bd9a2aeaU, 0x3ce114f4be1b39e7U, 0xbdae3a633da467c6U,
  0xbe51436c3ba9bd58U, 0xbdba9c823d8c8b18U, 0xbe59913dbe8e1c2aU, 0x3d810659bd56c192U,
  0xbdc500db3e39a744U, 0xbd828028bd6c4e90U, 0xbc9c44ccbcecc997U, 0x3d491b943d05956fU,
  0xbe0ac914bd36f46dU, 0xbbf86b1e3de0b6eeU, 0x3da92e8a3da9f539U, 0x3d93afaa3c2bd316U,
  0x3c938647bd6f0399U, 0x3d8e5e973ceb17a6U, 0xbdf20ff93e2b258dU, 0x3db6a7aa3d789a62U,
  0xbef7fd7b3c02c428U, 0xbca5fd74be022c93U, 0xbebc5e34bee0a301U, 0xbd7bfef43d04bce3U,
  0xbde84964bdd24147U, 0xbdb98375bd80d2d9U, 0x3db5e9acbdf1f141U, 0xbdade1f2be1c67e3U,
  0xbebaca1a3bfbbe2bU, 0xbd94ddee3c7e27efU, 0xbe4962a8bea8874fU, 0xbdef7a7d3e2d4e43U,
  0xbe78dee0bca1802aU, 0xbd98815fbd338db6U, 0x3de778d73d684610U, 0x3cedcf1cbe17ffddU,
  0xbe6dcb16bccfca50U, 0x3df2e9663d2781bfU, 0x3e1b1a3fbd89e7c8U, 0x3d3fbec9bcf18679U,
  0x3d23325e3d1d6501U, 0xbc0854283e09e776U, 0xbda123153d6063a0U, 0x3d84b15ebd175adcU,
  0x3d140533bd899a6fU, 0xbd42f30abd0b0aa1U, 0xba12f1a4bbfd8189U, 0x3cf6cddfbddbebe2U,
  0xbd9d1689bda4ddbdU, 0x3ce0018bbe1787c5U, 0x3dd342b23cc615fbU, 0xbd74e989bdde1697U,
  0xb9c488943e490535U, 0x3d41653a3d459d70U, 0xbc4102e33e2582fbU, 0xbe8d9d373e4c9b59U,
  0xbb8a990d3c819bf2U, 0xbb961377bc86c180U, 0x3def4cdbbd60023dU, 0xbdaa631c3df85f53U,
  0xbda13221bd998126U, 0x3d60c900bd732453U, 0x3cc70a003d44efefU, 0x3e9b4b11bd80aca0U,
  0x3c0886edbd08c34cU, 0xbd8a7e323d5998f7U, 0xbe11448c3dadb8ccU, 0xbd25b46c3d4cf5edU,
  0xbcadd8ec3d6bf03bU, 0x3a8276053d4e5474U, 0x3cc31808bd186367U, 0xbdf780673cf5d17eU,
  0xbd2087e83d78af30U, 0xbd21457bbd5a470eU, 0x3d337caa3db724e9U, 0x3d3772c1be436fbcU,
  0xbe07c08abd904254U, 0xbda9ab42be25b661U, 0xbdd1d97a3de22f2fU, 0x3e5472773e0e38edU,
  0xbe0560a33c249f90U, 0x3d7baba83dbfaf80U, 0xbdbb4f40be33d49bU, 0x3e0307c73e6df184U,
  0xbebf26febe02f461U, 0x3d05f1a63de89f3fU, 0xbd8a688abd9e4c94U, 0xbd1a9bd7be349269U,
  0xbda65322bd023655U, 0x3d7006acbdc9c438U, 0xbc9804073e3c090dU, 0x3dabffd6be225520U,
  0xbbf8f8003db41145U, 0x3d919676bd25edb4U, 0xbd2056823ccf37e3U, 0xbd8cd7413dc80e54U,
  0x3d6d0891bbed837dU, 0xbcb1074b3d19362aU, 0x3ce5afd4be2e13b3U, 0x3c1affdcbc34ce18U,
  0xbde8ac72be5d111bU, 0xbd2aaa293d999202U, 0xbda4b62e3d895b31U, 0x3e525fcfbe8ebdf2U,
  0xbdc51c5ebc5469d7U, 0x3dfc472abd3c5429U, 0xbe0ddb613d6e725eU, 0x3ca952053df34c5cU,
  0xbe1835fb3e3fed73U, 0xba3c5f96bd2c8086U, 0xbd76d3ebbe1844bdU, 0xbe7069f53e23ab07U,
  0x3d1eca26b9f46236U, 0xbbebade5bce9eebcU, 0x3dc12c6cbde8b5c1U, 0x3c4e0498bdedb227U,
  0xbd82d9db3d98c2d1U, 0xbdcbd0cd3cb781edU, 0x3ccd953e3d86e8f3U, 0xbc59162abbc84c33U,
  0xbde6b2e8bc7880d0U, 0x3d023e31bd0ac436U, 0x3dd927babd48f4f8U, 0xbd148a843ccf1793U,
  0x3d077e6dbd534658U, 0xbe3755bd3ca245dfU, 0xbab818a4bdb1732eU, 0xbe5d9df53ce172bcU,
  0x3d3f228e3cdda957U, 0x3c8ff4d1bd04a756U, 0x3e2ed7f1bdb2be7dU, 0xbda4aa3ebe0cb2f4U,
  0x3ddd40803d85884cU, 0xbe4dfd9fbc97c906U, 0x3d580f87bd6dede5U, 0xbca790b03dfa6936U,
  0x3d13b4aabc87644bU, 0x3b8dbe973ada3947U, 0x3de9feb6be1faebdU, 0xbc7912c2bcd9eec5U,
  0xbd487b9bbc9c973cU, 0x3ddaea9bbd0247bbU, 0xbc761a953d5f930fU, 0xbc2ca3233df398ffU,
  0x3d2ee6743bd23c07U, 0x3d788e6fbc6ee4cbU, 0xbd729bb83d871c98U, 0x3d76f5ee3c827658U,
  0x3ced9fe93e2f8532U, 0x3dbba1c6bdf03b79U, 0xbbf90ebd3d0d21feU, 0xbccbe0ee3dd1f2c2U,
  0xbc1eb82e3d3403c3U, 0x3c976af4bd563a85U, 0xbd1bfda7bd544ab3U, 0x3d600a233d5cfa5cU,
  0x3d5dfa383dba56c9U, 0x3e1827ad3d1b4597U, 0x3db71e0dbc73eecfU, 0xbd370169bc03f3b6U,
  0x3d5e0a91bd5122b9U, 0xbc3dbcb73cd0ce90U, 0xbdd7f1c6bd0014d5U, 0x3cd955de3cbcaaf4U,
  0xbbfebc4abdd93a8bU, 0x3dc25970bd9a873cU, 0xb9bb710b3d44df80U, 0x3d780c67be1c2416U,
  0x3be303a6bd8cffcaU, 0xbdd3d3a8bd067a8cU, 0xbdb50e72bd758c57U, 0xbc2e2a33bcc94e50U,
  0x3d04d957be181af0U, 0x3ce99ec53d1ad435U, 0xbcdecb503d95ea6eU, 0x3dfb5ec6be437a00U,
  0xbd22ddf5bd45600bU, 0xbd0775b4bbb370c7U, 0xbe205dfbbc005cfaU, 0x3b5cf3303d1c1324U,
  0xbcdee33fbe1afa10U, 0x3ce7bf53bd4ceb73U, 0x39a25de63d74d5d8U, 0x3d9312a2bd98a957U,
  0xbcc3cc5cbd199117U, 0xbd246c13bd30b70dU, 0xbdb4a4633d91d65fU, 0x3c6917263a4c325fU,
  0xbdf57a3ebce6d7ceU, 0xbe1115e13db4148cU, 0xbd6c0c873dace007U, 0xbe056b82be0fecbdU,
  0xbe0ee87bbe1aee56U, 0xbd1ec0f23d54356fU, 0x3e2b3171bcc00f9bU, 0x3cbb6819bbd7e5d1U,
  0x3d027878bcbc264cU, 0x3dbd26a63e32e6f4U, 0x3d925a7e3dd18939U, 0x3ed66b7d3e4ff772U,
  0x3c8eb7ad3e35541bU, 0x3e1970b83e7af4adU, 0xbe9546e33daea06dU, 0x3e6b62783ddac353U,
  0xbddd5052be4e1a9fU, 0x3c0a69fe3d97f8ddU, 0x3d70ba56b90242d5U, 0x3c2d9250bdb782edU,
  0xbdc10056be841b64U, 0xbdb7ae753d0f7dcfU, 0x3d83d1863e14863eU, 0x3e455ad1bc348628U,
  0x3d8c8b1d3d24c264U, 0x3da920acbcfdd114U, 0xbd4a62d63dcb2e3dU, 0xbdc68a4abd50dcbfU,
  0x3d9f4d9cbd988d7aU, 0xbcc178c13d935fe3U, 0x3d3747cd3dbe9d83U, 0xbd51f7433c638641U,
  0x3d8412ba3cc1f665U, 0x3ace9503bd834a6fU, 0x3d87a836bdd9f252U, 0x3edd0e943e32a8f4U,
  0x3e25c497bd9b57ddU, 0x3e21109e3db086d5U, 0xbd89b17f3e4decd2U, 0xbd960c0f3e8b3b88U,
  0x3d5618d43e194b96U, 0xbd8578d03a6a2ceaU, 0x3c373fac3d4f9393U, 0xbbdf10993e42659fU,
  0x3e09ee623c07129eU, 0x3e578041bc86ec0eU, 0xbd75b021bc3d8e15U, 0xbd795f143cee369eU,
  0x3e0bc76fbc9a9022U, 0xbc51f8cfbeb3f232U, 0xbe35627cbdc0cff3U, 0xbec56cf4bd3dc57fU,
  0xbe5d750d3cae2c6fU, 0xbe836599be9429a2U, 0xbd37fbc1befa095aU, 0xbe8c4c9abea6dc93U,
  0x3e3114573cf618baU, 0x3d382554be19464cU, 0xbcbe2f0bbe1b5096U, 0x3c802693bd517f99U,
  0xbb5e51363e7552b0U, 0xbe5a7613be74bda8U, 0x3ee6e378be8b0d05U, 0xbe53da0fbcfe9888U,
  0x3e084d5b3dd20f43U, 0xbd9061a8bdf509d0U, 0xbe8726b1be012101U, 0xbf2498a1bd0a56b1U,
  0xbe7f636f3d3434bcU, 0xbe81e938bee39474U, 0x3ce7c274be5e9710U, 0xbe14e356be4b8fdcU,
  0xbe36861abbf36e6cU, 0xbd0d89e7be02c836U, 0xbe0ea6ed3dc427e8U, 0xbec132e93e51ce2eU,
  0xbd8aa802be0d4203U, 0x3d001c26bde16a0bU, 0x3df13fccbdf32a7cU, 0xbd64d644be89378aU,
  0xbd46a2ee3e4b261cU, 0xbc473722bba8344eU, 0xbd84dfc23e1e3330U, 0xbe538c313de3c36cU,
  0x3e334e72bba075f4U, 0x3d8c608abdd6fa5dU, 0x3dfd9fd6be704f44U, 0xbe2228203d66157eU,
  0x3dbc4c92bd2b359aU, 0xbc69ac81bdc06fe6U, 0xba5d2d483e316da8U, 0xbd84ef633d89409dU,
  0x3e11c0b3bdfb6de8U, 0xbbbc57a1be0c7a66U, 0x3d42843cbe06231fU, 0xbe80bfe03de2f5f6U,
  0xbe0d4a9b3df1bce6U, 0xbbeb6c6bbcddae89U, 0xbd3231653e881751U, 0xbc3f53d03e1a778eU,
  0x3d8f8af43e1769ceU, 0x3ca62706bccd3495U, 0xbb2f77e3bde49b4eU, 0x3daafa78bd8593abU,
  0x3daa5a58b719eda1U, 0x3df44fab3deacf84U, 0x3d47f2173c652a58U, 0x3e1415f4bcb66005U,
  0x3cf42b283d439de1U, 0x3de1e39a3d9ced9aU, 0xbd02e2923d33676cU, 0x3d16ec663e01811fU,
  0x3d110a1a3e137c9cU, 0x3d23b17a3e1ae6a8U, 0x3e1846f2bdc64339U, 0x3ccf3edf3d3183beU,
  0x3cdc53913e164789U, 0x3db20c7e3e312e43U, 0xbdae67bd3e3c844dU, 0x3dc36c043d289a5eU,
  0xbe592dcebe126e36U, 0xbd3437fc3dd2f59aU, 0xbd95b10cbc829254U, 0x3dc0de67be36b7d5U,
  0xbd7bc644bdd5fb5eU, 0xbd68d7993dfa31ceU, 0xbe1532fcbdcb2b8bU, 0x3dd8750a3e092f8bU,
  0xbe9f3c6fbdb73697U, 0x3cadce523d63ed89U, 0xbd1aef6ebe4d3224U, 0x3d674051be8cf407U,
  0xbd3924843d74084aU, 0xbd50f2fb3c0e64c1U, 0x3c25e7d33e20e92fU, 0x3d6729d2bda09cf5U,
  0xbe18f5ebbe643981U, 0xbc844f30be2b8224U, 0xbcc47519be53b1edU, 0x3e5a2193be6fb9ebU,
  0xbdd3ab83be025fd7U, 0xbe1a4964bb7059d9U, 0xbd8910c6bdcbb28fU, 0x3d8b97733d8ec122U,
  0xbad0ca0b3e498569U, 0x3e076f57bdf3ad59U, 0xbda691e7bd98260dU, 0x3e70c5253b9cb4bfU,
  0x3e1a8e763d930f0cU, 0x3d90719e3e507f02U, 0xbe19b9ca3d889f25U, 0x3d71b3423e5f824cU,
  0xbd99336dbe547458U, 0xbd523790be585a52U, 0xbebb761dbde772c9U, 0x3e2d874fbe1048ebU,
  0xbc40215b3d0cabe3U, 0xbdb0db35be45960fU, 0xbc9412c9bdcc31a5U, 0xbeddefa43df92d4fU,
  0x3dc406523c7aab98U, 0xbe017314bdcfb2c2U, 0xbddf73ebbd641fa1U, 0xbb479d2abe116851U,
  0xbcc0591dbdab98b4U, 0xbebbe1ecbe94fd05U, 0x3d9a2987bea00ce0U, 0xbf085ad2be05a61dU,
  0x3b058406be4952fcU, 0xbcd57461bdccd3e8U, 0xbe207d3cbe6a2db3U, 0x3d9753c3bdb711d1U,
  0xbd7ce3e43d557d9fU, 0xbcc40973bdcecbc8U, 0x3da0f866bdadeefcU, 0xbe7b22c1bdc2ece4U,
  0xbd16a49bbda49e78U, 0xbe19a801bd4bfc49U, 0xbe031df93d2d5aafU, 0xbe950af63c7216a0U,
  0xbe6b6785bde86cf6U, 0xbe2a14efbec7ce0bU, 0x3d92a70abecc787dU, 0xbf04d6a4be0c7f67U,
  0x3dc976cb3e875752U, 0x3e3386fdbb8409bcU, 0x3dd666a9bcb61633U, 0xbe03848c3e5ea045U,
  0x3d8d05d63d84fe3eU, 0x3dd7fec53ccf6183U, 0xbd19c7a13bc996b4U, 0xbd3a51823e54f8dcU,
  0xbc95e3393b452bb0U, 0x3d175567bd8dd585U, 0xbe19a350be017bb8U, 0xbe251b6d3db37e3cU,
  0x3d57cf423d1db5fdU, 0xbcf4d62bbe9c5cb3U, 0x3e361465be15c2a5U, 0xbcbe2125be118808U,
  0x3cfde8293e0ea896U, 0xbb5299c7bc106c6aU, 0x3b43d0c43d81ad37U, 0x3dd958283bf6ed47U,
  0xbd1e3eaf3cb0b95cU, 0x3d8decfc3e309debU, 0xbd4f89113e0c9852U, 0x3e9327703dedcf83U,
  0xbd00c7ddbe047ef0U, 0x3d6edc673e1de763U, 0x3d719e903dafa51dU, 0x3d3d9aedbd20c391U,
  0x3d076c98bdb4d063U, 0x3d81b2863e102760U, 0xbdc414523e42286dU, 0x3e523ff1be1ba0c0U,
  0xbe927204bd1d4303U, 0x3ef27a96be5054acU, 0xbeb636703e1fd937U, 0xbd98d9803dfc5bb8U,
  0xbd8aea48be10cf11U, 0x3e2cdf32bda11353U, 0xbe532bbcbe15c6c1U, 0xbe63fc943df5f27bU,
  0xbc693f083cdc607dU, 0x3df5d9273c9e5954U, 0xbe763c5c3db8632bU, 0x3de25a5dbd552353U,
  0xbbd8a7c13e6e9e17U, 0xbe5e5fd93cf6d8c4U, 0xbdf56565bde24210U, 0xbdfa2087bd49d9ccU,
  0x3dfbd33bbdba1209U, 0xbe6f4eff3d665e8eU, 0xbd2e73d0bce7825eU, 0x3daf651ebd806682U,
  0x3d6e427dbe390eb6U, 0xbed4ce253a66877aU, 0x3e0d00ae3c3eabd8U, 0x3da24693be2dab66U,
  0xbe7accc43da15dc3U, 0xbd8b7f783d7f8733U, 0xbe8096e63e656063U, 0x3c177144bd3c3559U,
  0xbddbd9983d8d9a79U, 0xbddc55033c5523e0U, 0xbd893850be19f03cU, 0x3caaaf1cbe0b7ed9U,
  0x3e06509f3dd6d430U, 0xbd9dfa463cd3c598U, 0xbdb1610e3d6503d7U, 0x3cfb5284bdb1a3c1U,
  0x3d2691cdbce7e9f6U, 0x3c64eefcbd1bef59U, 0x3c1f7b8bbd45fbc6U, 0x3cb7ddb53e011b67U,
  0x3e02ba31bbbfb8f8U, 0xbe830db23d145bcfU, 0x3d27e2fabd741803U, 0x3a99d621bc7b08abU,
  0x3e492e26bd6d69c2U, 0x3d2755a5bdcc6266U, 0x3cffc057bd2fe669U, 0xbd10f932bce2b246U,
  0xbdc64755bc7be52cU, 0x3d990c5d3df3a949U, 0x3dd42b783dbf6d57U, 0xbd86b0db3d9b25dfU,
  0xbe1aac59bd8b1435U, 0xbc900d4d3e2e234cU, 0xbd18a684bd451be8U, 0x3ca20d31bd9abf89U,
  0x3da29d33bdd4c18cU, 0x3b6a62cf3cdeb703U, 0x3c8e2807be1d6875U, 0xbd7284e13d3c7325U,
  0x3d2349a2bcd3e8a6U, 0xbe032ceabc75b2daU, 0xbd4cc45dbcc1a299U, 0x3cbe8b373d8b9674U,
  0x3db33d5a3d1b5165U, 0xbdd1c5f93b05cbc9U, 0x3db6189abdeccd71U, 0x3ae5a05dbd9d44b6U,
  0xbe0a79d93d91d25dU, 0xbd8a963abdb05256U, 0x3d852fd1bc1fd5e2U, 0xbca6b3973ddbe51dU,
  0xbe5a1d2dbdb34c30U, 0xbc8d816ebd55fa25U, 0x3d689ee1bd8c7f19U, 0x3e48ae9bbdc25069U,
  0xbe3ca4c4be46e78bU, 0x3d1f57bebc5251edU, 0xbe3ced503dbb8ed5U, 0x3ca0be243da42b17U,
  0xbde98756bd19de78U, 0xbd455fb63e09cb9eU, 0xbdcddca6bdafc06aU, 0xbdcf89ce3e64ded7U,
  0xbdb890963c54db5cU, 0xbd858a453cd8b953U, 0x3e749f49bbf4f575U, 0x3df89492be8a860aU,
  0x3ab80f7a3d2e82d6U, 0xbe0f28f9bda12365U, 0xbe0bee89bc80ceadU, 0x3c99412abdd4221fU,
  0xbde90eb9bd46995bU, 0xbcf34513be32a723U, 0x3dc48de13d43d5d5U, 0xbd40bdf63d659010U,
  0xbe4fc545be47352dU, 0xbd9de2e7bc582dd6U, 0x3e5a758bbd433cadU, 0x3e067d16be78105aU,
  0xbc39ae96be8ca085U, 0xbdb0375a3de313d6U, 0xbe02837a3cac7a48U, 0x3e191af23cac6d61U,
  0x3e0c2ff73f05b1c7U, 0x3d74c952be0c17adU, 0xbb9610a63de68e26U, 0xbe81a1383d4e23f4U,
  0x3dbbecab3d09a769U, 0x3db8d483be23739bU, 0x3c6913afbe56047bU, 0xbcd677d3bdffa926U,
  0xbbf8e8e8be4aa10dU, 0xbd72bd243cbf5232U, 0x3d93ce263d238ed9U, 0x3df81b78bb25609dU,
  0xbd6dbbe93b5ac0d6U, 0x3d2c5eea3dc2c79eU, 0xbd2da868bc545a6cU, 0x3e084dc33d9d714cU,
  0xbd7c9170bdfc1200U, 0x3e01cbecbe16489bU, 0xbc88589a3d6f0d50U, 0xbdff74733e0b0497U,
  0x3d07cc38bdba9042U, 0xbd8d48873c968793U, 0xbcb118bfbdd440ddU, 0xbe13e7ec3d8f0f9aU,
  0x3dd77ca3be8dc33cU, 0x3e2fef67bc9a9cb3U, 0x3d9f8b1f3d5179daU, 0x3da8eb5fbe894f10U,
  0x3d5e24c2bdb0088eU, 0xbda05a7a3d3ebe96U, 0xbe34f1a83cb25fb5U, 0xbdad54af3de2aae5U,
  0xbd93ab793e28118bU, 0xbd10b5c73d402c08U, 0xbcf811e03be07cf9U, 0xbe0e24ca3e1605b4U,
  0xbde5a32bbcbd975eU, 0x3c1306d63d309112U, 0x3d1d0138bc875e30U, 0xbd56160abdc8d2f3U,
  0xbb8d91ea3e5b0346U, 0xbe6325f23da19503U, 0xbd1ea7333d47066eU, 0xbe73b8993dcbc692U,
  0xbda9d288be104998U, 0xbcead288bcf05788U, 0x3e91a0683dc2d7b9U, 0xbd09d916bd60b521U,
  0x3b52312ebe4b50f5U, 0xbe64ae5bbd4b0a64U, 0xbd9b34c2bda26c52U, 0xbe1178cc3e8831baU,
  0xbe08d6413d3e1fe6U, 0x3c55b0c53e31732fU, 0x3dcab3a5be0bfc5fU, 0x3dc5bd50be166df5U,
  0xbe50339f3bfe07faU, 0x3b813275bc785ccfU, 0x3d52acb5bb02a486U, 0x3dfd40dcbaa13e07U,
  0xbe4e83b3bdde96fbU, 0xbae80630bd9d349cU, 0xbdbd7f523d8085b2U, 0x3d6a81a9bcc79e3cU,
  0xbc1b2928be11f70aU, 0x3e8aa604be8ef9c4U, 0x3dcd745c3cc5913fU, 0x3e878fb6be2d4044U,
  0xbcd699a8bdcfdbe1U, 0xbbd260f3bdda4853U, 0xbe77fc82be0f2132U, 0xbc9f21a53e672ed0U,
  0x3e059db93eaf2fa9U, 0x3e6c31a8be508c44U, 0x3e14cdc83bca88d9U, 0xbe51bd5bbe50e37dU,
  0x3d123b87bc650ae0U, 0x3d27890abe6ce3f7U, 0xbceb4603be259c7aU, 0xbda0b0163da2b569U,
  0xbdf0523a3c3893f8U, 0x3cffe99d3e096f30U, 0x3d39439a3d850ff8U, 0x3cd386c3bc88a3aaU,
  0xbe1c5acd3bb32c09U, 0x3ddd4efb3ccfc39bU, 0xbd218caa3cb4b038U, 0x3c9994393c4345eaU,
  0xbde5c1d33d98c50aU, 0xbcd96da2bc4b840aU, 0x3d96d5163c5fae02U, 0xbd0783ed3e24609bU,
  0xbd896e313d0f8164U, 0x3c989ef23dd99adfU, 0x3ddc53c23d260bb8U, 0x3ccc8aaebddfdacdU,
  0x3e185b30bea23bf4U, 0xbab1d2dcbda3396bU, 0x3ddf1cd4bbf3524fU, 0x3e229582be00fc23U,
  0x3dbf2debbe4dd998U, 0xbe06c9433b9b2059U, 0xbe66017ebd1a9ed7U, 0xbd200d863ce86e78U,
  0x3da00abbbe1718c9U, 0xbddd1cb4bdd8ab65U, 0xbd0bd6e83c9bcc80U, 0x3bb4a035be00fe23U,
  0x3d88ac81bd029ee9U, 0xbdba9de4bd9fa69eU, 0xbe1b5321bcd9f31aU, 0xbd50abf5bc91f936U,
  0xbd4e7b993ca7e6c2U, 0x3e6f8f6f3dbf0fc3U, 0x3d06a5ad3dc201a7U, 0x3dcab89ebdbb8499U,
  0x3dbbd0ed3d8a486eU, 0x3da24edf3d9609e2U, 0xbe1427e13e39f32aU, 0xbd00945a3e51f3a9U,
  0x3db5e6e43e84c5e1U, 0x3c5059343c64724dU, 0x3df0dd4dbdfde4ebU, 0xbe1033a23e1339ebU,
  0x3daa61f9bded6312U, 0xbe0fd4ce3c2ac5f1U, 0x3e2aee8abdb954f1U, 0xbc31a60ebe3a1395U,
  0xbd6bb1a6be259654U, 0xbe4e0a05be0ba3bfU, 0xbe08fd6ebd9cd9e2U, 0x3deb053abd272804U,
  0xbe1606dd3e0a5b1cU, 0xbd9c5244bdb82ee5U, 0x3e277b0fbed31f8fU, 0xbdbbdc46bd803bf6U,
  0xbd553f97be4dc36aU, 0x3dd8ba02be0df258U, 0xbbce0d983ca509ddU, 0x3d86a0a7be35342eU,
  0xbc9329a7bde41b1aU, 0x3d611f383cde63baU, 0xbe2d7c92bd1bf073U, 0xbd8264313e338001U,
  0x3ca729b93e55a249U, 0x3e3f1a033d7702c5U, 0x3e8b50b8bd48159cU, 0x3d6406d73d536843U,
  0x3dcee45dbd35cab3U, 0xbdc7c7d53daf5a3eU, 0xbad615febce94c65U, 0x3b1690c43b806257U,
  0xbe002416bdc8cd02U, 0xbe34407fbdd87ad0U, 0xbc710fbfbe220074U, 0xbeb620793e1f28f5U,
  0xbd8cfe48bcc8be9bU, 0xbdcf894bbe29d3d1U, 0x3e39f15abe5c3258U, 0x3d498afdbe03fc77U,
  0xbd1ee6b5be76ca93U, 0xbddd96c0be23893aU, 0xbcdb0c19bc9a3c41U, 0x3d8beda0bd19e149U,
  0x3d293c39bd051aa7U, 0x3db606c1bcbb206fU, 0xbc162695be04f7e4U, 0x3bfd9c7cbd06a682U,
  0xbdaebcc1bd5fb6a1U, 0xbd2a75edbcc898aeU, 0x3e24b931bcdf3378U, 0x3d602d67be82e51eU,
  0x3d0e5f69bdc09345U, 0xbd3f53da3e865fbcU, 0xbe3d76db3d8f755aU, 0x3d2961aabbb5a607U,
  0xbda040223e1e451aU, 0xbb84c2853db644e4U, 0x3e4f3d61bdb49d0bU, 0xbd6e37b93e4f29c8U,
  0xbdd7043dbe0f7820U, 0xbe249a8f3e0b3af8U, 0x3d9856c53dda0256U, 0x3e0bfc98be3dec4bU,
  0x3d07a4dd3dc34d85U, 0x3e3f94dbbcd25122U, 0xbd8542bc3ccc39fdU, 0xbd3d82bf3db10c66U,
  0xbd93873fbbfaaf4fU, 0x3d1bcaf2bcebe678U, 0x3d07effabcc1ea67U, 0xbd47f859bd2cf6a0U,
  0xbca8bbffbddb3d82U, 0x3d738b8cbda6cfd3U, 0xbd396c0c3ded9e1cU, 0x3d73e157be763ca6U,
  0x3d89056dbd682aafU, 0xbd6b2bfcbdaf7e47U, 0xbd8f73efbdd536eaU, 0xbc75e5d83e0829d9U,
  0xbd0475023d65fa23U, 0xbe2692213d356b15U, 0x3c8c226bbd9925e4U, 0xbda553453db008bbU,
  0xbd024d413ced8d9cU, 0x3d287afcbd3ca80cU, 0x3d4c2c693dcd7167U, 0x3d409cc8bdcd28e8U,
  0xbdbe211cbd9c0f31U, 0x3dee79adbda9a43dU, 0xbdb7eb923e22fa25U, 0x3d6041cebdd35b16U,
  0x3e02f493bdca8f1aU, 0x3d1144a4bd5581eaU, 0xbdca92e0be56e2ecU, 0xbcf5ba143e035106U,
  0x3d822a0ebdd58d45U, 0xbdf7a5663dbfe309U, 0xbcc5c97f3da3c70cU, 0x3bf04e843df49e35U,
  0xbe17156ebd1d26eaU, 0x3ccd07a9bdd68310U, 0x3d7d2e0e3e16f505U, 0xbd1de495bdf723cbU,
  0xbd353ec23ddfc9bfU, 0xbbe7e19ebdade9ecU, 0xbde8858f3d3b5752U, 0xbdff48753df85aa5U,
  0x3b8138d53dac27b0U, 0x3cf18106bc787b0cU, 0x3d925af0be42db11U, 0xbd9ef5e03d260a86U,
  0xbd4be1d0be28dae8U, 0xbe5c44603d5e2181U, 0x3d316b933c550cfaU, 0x3dc4b78bbd847f2fU,
  0xbd62a3c7bd60edb5U, 0xbd902a353caa8fb0U, 0xbc5d32e83de01273U, 0x3ce2405ebe00b094U,
  0xbc801fab3e1cfb4fU, 0x3d3173a8bd6250e5U, 0xbd562a2dbc59e9daU, 0xbe09c5ba3d7777b8U,
  0xbd2f02603cea6d02U, 0x3d9e7deb3d376b05U, 0x3d829ccfbdc28725U, 0xbcf8f0d33dd0c4b6U,
  0xbb067570bd0c34b6U, 0x3df1f0363c849981U, 0xbdc56ec03db4de90U, 0x3e0bf683be11c0b8U,
  0x3db7d8f9bd86c581U, 0x3c1394423d2955a6U, 0xbdf21917bcabfefcU, 0xbd063c623d6fa927U,
  0xbc0d72353c381492U, 0xbd8965d43cf37f7eU, 0x3d2960453ac3bee8U, 0x3d54b299bb6e5961U,
  0x3d570b31bdf222c5U, 0x3cf57e793da5ac5fU, 0x3d046f773da85c3dU, 0x3dfc934bbd99c503U,
  0xbd5456b3bdd9d68bU, 0xbcf440c7bddabb4aU, 0xbb156678bd54f0a2U, 0x3d9230bf3deb8e86U,
  0xbe3d38b33c83916cU, 0xbdbdb6f9bcf16d22U, 0xbc162eefbd723dc5U, 0x3e25b84dbc4738a9U,
  0xbe9b00bbbe3c3ae1U, 0x3c8bc422bcf2c00fU, 0x3c586931bbc06e50U, 0x3e1cc5bbbe9a3f7bU,
  0xbdf27dca3b210e2aU, 0x3d06bd4f3d5de2ffU, 0xbdc60f68bce881e3U, 0x3e3dd2383c305a06U,
  0x3cafeb833da1ff8bU, 0xbd5f0190bd83debcU, 0x3dd8814eb940c741U, 0xbd03ce993d5cfbafU,
  0x3d661fc2bdb7152cU, 0xbc4e1ed83e08b061U, 0x3df1e6fdbc3edc3dU, 0xbd8e14b3bca615f9U,
  0xbc5b69a33da9a960U, 0x3c99d6063b238c3dU, 0x3e2415423d712ef9U, 0xbca61fab3dac6356U,
  0xbdf2412e3c0265adU, 0x3c199a6fbc98bb11U, 0xbc11a540bd970357U, 0xbdadc27b3d2a3f0eU,
  0xbe570b313d5faf30U, 0x3ddc9f48bd1395ddU, 0xbd308acb3d13a2dbU, 0x3c8696e4be425d2bU,
  0xbd410beabb494d54U, 0xbd6bbc15bda5d048U, 0xbc7acae2bd4ffd6dU, 0xbdd94d5b3de39665U,
  0x3d043f8f3e096bd5U, 0x3c4b0b263da582bbU, 0x3dd37062bc90d002U, 0xbe387a3e3dde4b61U,
  0xbbfae3eb3d05eec0U, 0xbcfd7fb83ae5f63fU, 0x3d1e3ffe3d01c33eU, 0x3c99892fbdde533aU,
  0x3c0df47dbdc418a2U, 0xbd8381143d8a419fU, 0xb97ff4983c893478U, 0xbd9a799c3d90a9a7U,
  0x3c9d4167bc30c28dU, 0x3cb82acabd3d7d4fU, 0xbd418ffebe646e4fU, 0x3d07bce5bc62f2fbU,
  0xbd7fec4cbd91b749U, 0x3cd2fff6be48ddeeU, 0xbe3dcc96bd3eee17U, 0xbd1eb813bcd16c92U,
  0xbd6124f03c895baaU, 0xbda2d0b9be7c8886U, 0xbd660551be9a0c46U, 0xbe2c4259ba6ab789U,
  0x3d12716abce5e1c6U, 0xbe034f83bc7fa9c0U, 0xbd15c628be287d3dU, 0xbe07d6673c9c61b9U,
  0xbd8ba5ba3c671b14U, 0x3bd6a5aebddefa9cU, 0x3e6cd8dabd2b26f8U, 0xbd5bb8d8be23c2e3U,
  0xbddc118a3d1817f8U, 0x3cc8bb8f3d268075U, 0x3ccf723a3da97192U, 0x3dce63be3e08fbf1U,
  0xbd51f95d3ce8f051U, 0xbc3a8afc3d677cb9U, 0x3cd9f8febd1cbde6U, 0x3d9fe98a3d06138fU,
  0x3d5ac5bb3dc078a3U, 0x3d0d96d8bd26fc12U, 0xbd9f44e93ccc9c52U, 0xbd34e0e0bd8a5f9bU,
  0x3ddd08efbccf5c75U, 0xbd93f519be1a19b2U, 0xbdb5a498bcf642e6U, 0xbcf003c03de9c6b4U,
  0xbd2890c73d2fbf6fU, 0xbe2793df3c568b8cU, 0xbd2225e6bd200295U, 0xbe552f393dae7d7bU,
  0x3a3b53cebbc18cf3U, 0xbdb5280abc2ed12aU, 0x3dd3621ebdc7356cU, 0x3d9ecc72be75a96cU,
  0xbe491f5d3e09a6ebU, 0x3e2f07e73dd44312U, 0xbe20afe53d791557U, 0x3c8c1e36bcbbcc61U,
  0xbdf3f0313e041d7dU, 0x3e684777bc920f47U, 0xbe043306be8ac53dU, 0xbd2aaa833e20e538U,
  0x3e4f9532be317c97U, 0x3ddc1ac7bd98caaaU, 0xbcc18c853cb754c3U, 0x3e21f8a2be34b366U,
  0x3e12a570be38b7e7U, 0xbc8c61f5bc2fdd8cU, 0xbe2f8125bd83d5b6U, 0xbcfef4003d466654U,
  0xbd91694d3df0862fU, 0xbe1ccdbe3d48209eU, 0xbb21333abc65fdd7U, 0xbe83676e3e77b1abU,
  0x3c25eacfbb0175daU, 0x3d8137943d3c315fU, 0x3e62938abd80e230U, 0x3cbe0962bcfbc868U,
  0xbdd1bda9bdd43ac3U, 0xbcb1fc153ac006a3U, 0x3de281693c5af717U, 0x3e62f554be695fdfU,
  0x3ab7dc27bd072dafU, 0x3bbc291a3e186bfaU, 0xbd6d91a43cfd1e15U, 0x3d95f7ebbe1f1dd0U,
  0x3e0b5cdbbe81712cU, 0x3d8031a4bd80a062U, 0x3dacec073e0f8aedU, 0xbd238109be225562U,
  0xbca97dafbe04b14eU, 0xbdbf8a77bd96e9acU, 0xbdc979c0bd933928U, 0xbd077d053ddf858cU,
  0xbde21cf13e0ce690U, 0xbdf785c0bd08c818U, 0xbdfec572bd2004cdU, 0xbe01e7023bf5fa73U,
  0xbe111f643d1bb371U, 0x3cfe6726bd6c7d91U, 0x3e3c90f7be309510U, 0xbb38ed52bd1720a2U,
  0x3d3df2b4be353543U, 0xbd0953c8bde22845U, 0x3ca49654bd033293U, 0x3deabc133cb8f450U,
  0x3df16ce3bd6477c2U, 0xbd7f01a83d4eb34fU, 0xbd449155bdbe1428U, 0x3d29d26f3cc6425aU,
  0x3c40ca22bc93c9edU, 0x3e8d82c0bc0b1992U, 0x3e88f3f6bd3044adU, 0x3d8b061abe2d592aU,
  0x3d876753be1b4789U, 0xbded8fc83d37cd1aU, 0xbe8c7b9b3e09e724U, 0xbd69f9aa3e3a308eU,
  0x3be2a982bd0b970bU, 0xba2a8d00bd4f8231U, 0xbdac1d30bafe5b95U, 0xbd02ec35bc4ad4dcU,
  0x3c5dacbdbd4c41f1U, 0xbceb8159bd61ab6fU, 0x3dbff3b2bd92bc74U, 0xbd678649bd53df92U,
  0x3cebc6b03e044d77U, 0xbdd6a4983d85fb62U, 0xbd9942eb3c7937a4U, 0xbdd19bea3e167af3U,
  0xbe0acfc73e4366f9U, 0x3dc79c6dbd3ad151U, 0x3e0aff69bc6cee7dU, 0xbd12e7193cf60c93U,
  0xbb568abfbd944068U, 0xbc93b969bd115737U, 0x3d64c08dbcf9c69bU, 0x3dd4900b3d8a4774U,
  0x3deb97d9bde07ebdU, 0x3c9633113d956f83U, 0xbe06311ebb6ef2c9U, 0x3d5232c3bc7f6a6dU,
  0x3c35d213bccbb517U, 0x3c9dd44fbc6b19f1U, 0xbca654b0bc3b53d6U, 0x3a4f9fa33d30933bU,
  0x3e14ba7dbcb969d1U, 0x3b8d1dbc3d0dd835U, 0x3d474ee2bc7b18d6U, 0xbbd45798bd994f3eU,
  0x3cbc140c3dcdffaaU, 0x3d2988fcbcdcf0aaU, 0xbda3b6d43d900f19U, 0xba1b54e3bd2ee94fU,
  0xbdcb53a73d1003aeU, 0x3d5b4c2cbdb187d9U, 0x3b963032bd2fbe46U, 0xbcbdba273c82a474U,
  0xbd0a0a85bd992c3dU, 0xbd3a80f43d1c03c2U, 0xbd9159d53d726655U, 0xbd2e5930bda20c68U,
  0xbd23529ebb8b2b22U, 0x3dcc0220bbe5b510U, 0xbdf0fa6f3d0c60c5U, 0x3caa081cbd302f9eU,
  0xbe0fe047be079652U, 0x3e5c39c13b05cf36U, 0x3d5da9e3bdaa6127U, 0x3e0a74edbb46134fU,
  0xbe6105db3cf722c3U, 0x3dca88be3e25d1acU, 0xbdb1b8a13d0c4406U, 0xbba3834f3e12b2f4U,
  0xbd2a3e84bc95da23U, 0x3d4d89213bd79ccdU, 0xbd03ae13bcbcc57eU, 0xbd1828b1bd62d33bU,
  0xbd1a169cbc4be62bU, 0xbda4f08fbc9cf0e7U, 0xbc2d9106bda44300U, 0x3d158df2bd1f0e5dU,
  0x3cc545b03dc3bce6U, 0xbe0e0d193d94b2efU, 0xbd121a693da3e31aU, 0xbcced2e83d969e17U,
  0x3d111656bd486491U, 0x3d39bb89bdad0b5bU, 0x3d07b7eabc87b93bU, 0x3d757ce33ca58773U,
  0xbed7343ebdb73161U, 0x3e2e4c13bbc93847U, 0xbe33457cbe136ec7U, 0xbcf36c89bd3a2860U,
  0xbd4c923ebc82fc7eU, 0xbca67b1d3dff04e0U, 0xbda78504bc43a45eU, 0xbd8e43423e042e32U,
  0xbe2f658a3c95e61aU, 0x3ca38561bd30f79dU, 0xbd6846edbd8d87dfU, 0x3ce4f596be407c67U,
  0x3d990db5bdbffbe7U, 0x3daec4a8bd63bf9aU, 0xbbdf6cc7bd04d720U, 0xbd863f37bcc46cf1U,
  0x3e0228673d6f3ba4U, 0xbdc59f40bdd15570U, 0x3c8da7b43dd964d6U, 0x3d9d95f2bb5664d6U,
  0x3ae52615bd89adbaU, 0x3decabb4be1c7a62U, 0x3d5aa5233bbf3bd9U, 0xbd6098fa3d7d5d47U,
  0xbe2cc2a2be1dcfeeU, 0x3c88c2fc3d2e1cd9U, 0xbdaf8eb2bdb8ddb8U, 0x3d9d592dbe39d349U,
  0x3d8547073aab88d5U, 0xbe8dc7d5bde8b3abU, 0xbd9c9c17bdff4f43U, 0xbcc77f35bdfa798aU,
  0xbce61124bd2284bdU, 0xbdf42d563a913fe3U, 0xbc0cfce33d294a9bU, 0x3d2e0dd03de0bf62U,
  0xbd580b74bd60ab50U, 0x3e09fa41be1b1eadU, 0xbd10fff13d24c639U, 0x3c8c236ebe196f82U,
  0x3d7341033e3794a9U, 0xbdda7efb3d69808bU, 0x3ae60a163df572b5U, 0xbe8e2faf3e86a526U,
  0x3ce5fac9bcab4dbfU, 0x3d8e1de8bccc26e1U, 0x3d4d0db63bf4606bU, 0xbd79e7dabdc14704U,
  0xbdb08d283d976903U, 0xbdb9298e3ce53ff0U, 0x3e1519fa3e1418c3U, 0xbe057cb73e154773U,
  0xbde57fbcbc4b5b46U, 0x3d6565203d9eb83cU, 0x3d1a6d763d468962U, 0x3db55942bc83549aU,
  0x3c6454eabc15814dU, 0x3c973a893c866df6U, 0x3dac69263d8724cbU, 0x3d52f86d3d9aadb8U,
  0x3cd87e683d979ebfU, 0xbd8424b83e225d77U, 0xbd4ce893bd998fa5U, 0xbc9dafce3dae889fU,
  0x3d5dcbf8bd9a3bb1U, 0xbdb046243c738dc9U, 0x3baa760ebd02ba2eU, 0xbce3b6a2bdd1e474U,
  0x3d334bb73bf126acU, 0xbdcc195ebd82ce93U, 0x3c0aabdcbdb95e27U, 0x3ced8691bbf3e698U,
  0xbd47ee663e0a6e3cU, 0xbd3f5cb43d9910f2U, 0xbc878edc3c9ae708U, 0xbc4d06a23adcffc0U,
  0x3c6abad33d44c560U, 0x3e0bc3543d52a418U, 0x3cdd5305bcd2a52aU, 0x3d7bd8613d9627dbU,
  0xbd4777943d000e23U, 0x3db038f7bd056e15U, 0xbdcf814ebe8719deU, 0x3b497bacbd59855cU,
  0x3d0c71f1bc40c5f7U, 0x3db22c95be4eafbfU, 0x3c6bbcda3dc20f00U, 0xbebd5d1a3c87e496U,
  0x3da15f003dabe628U, 0x3d3e1738bbf075afU, 0xbe339810be91e4c3U, 0xbd297583bbe8952bU,
  0x3d4573413d436e5dU, 0x3d57465ebd73b0deU, 0x3d7149aa3dacd3bbU, 0xbe772f3bbd86c478U,
  0x3d9ae9af3d3d4858U, 0xbd0a4babbd5c6259U, 0xbe284d683c75215bU, 0x3da13a963da7d2c2U,
  0x3e648138bc6e3dabU, 0xbc2dc6cdbc905e6dU, 0xbdf4d047be554fc3U, 0xbc719ee53da1ba3eU,
  0x3c8c7ad7bd53a5a1U, 0x3dddf66dbdc44144U, 0xbe0f3dc2bd8074adU, 0x3d397731bb722294U,
  0xbc22cd803dde84b3U, 0xbe1c2c5bbe28f8c1U, 0xbd84e08abe2bbef5U, 0xbed7d59fbd5985cdU,
  0x3c093529be4995e1U, 0x3da6c792bd545fdcU, 0xbdb06a6bbe334a1cU, 0x3d971319be008418U,
  0xbd093cd5bd2ff2ceU, 0xbeb10778bdcf4a9cU, 0x3be7628dbe035824U, 0xbee0bf3d3bc47ac2U,
  0x3d3cd68bbd81fea1U, 0x3d268f7d3ccd2408U, 0x3d005e0e3ddceef0U, 0x3e39c092bdd3800bU,
  0xbcb7add8bc63ad57U, 0xbdb1b9243d2c1bdcU, 0xbde7bac2bc175f79U, 0xbc9dae713db6259cU,
  0x3da7ad393caf317aU, 0x3c58ee4ebd220f3eU, 0x3d191b233b015a5eU, 0x3d9802a9bcff3bd3U,
  0xbda3b568bb631afaU, 0x3d794b383d0fef91U, 0xbdc7c28f3d096d6fU, 0xbc29fc7a3d47c13dU,
  0xbd0622d1be4d28faU, 0xbd85e7f1bda56b30U, 0x3cc07696be1f9d55U, 0x3d413b54be2f5bd5U,
  0xbc0194e9bb95f3e2U, 0xbdd2e9213d062738U, 0x3c15e94bbd770798U, 0x3cfe62dfbd89a638U,
  0x3d491c983dcb5665U, 0x3d3a74b7bd5fc40fU, 0xbd6c08863d1d10deU, 0xbd1536ef3d0310f0U,
  0xbe03bb183dd331ccU, 0x3df49cbfbe0a1818U, 0x3e00f48e3d38416dU, 0xbbbf7b533e6459bdU,
  0xbd53dac83b256990U, 0xbd1c74c0bdff8026U, 0xbc762747bd0bc9dcU, 0xbd52a7cbbd3ae8abU,
  0xbd7e08d23ce1d168U, 0xbe04b6e5bdd647f5U, 0x3bbcab97be10e9b8U, 0xbde5269abde38707U,
  0x3cbb0b043d328b1fU, 0xbddf7cbc3d3b8b3cU, 0x3d38fee33c836ca9U, 0x3cc76d063d1a4e85U,
  0x3cf0a8d13d427488U, 0x398a47373ce210aaU, 0x3d20772d3c876144U, 0x3bb55e1bbdef16eeU,
  0xbc0de7ddbdb3e468U, 0x3d2b5e44bc761ebaU, 0xbcac2a71bd034b33U, 0xbde349e13d968412U,
  0xbbe161793c6726e1U, 0xbd8ac905be0f4c09U, 0x3d7927f7bded4569U, 0xbd55b313beabd050U,
  0x3ba798d5bd6fa2a7U, 0xbd8b42853d4eeb80U, 0xbc320a033d6cc530U, 0xbe5bb8ef3c981d8eU,
  0xbd8e374cbd16bad9U, 0x3d934357bcc1455eU, 0xbd920479be16f1e9U, 0x3cabf67dbe209087U,
  0x3c99c14f3e4c3387U, 0x3e07ba6f3d696724U, 0xbc9ffa443d963237U, 0xbde621a13e1eb1b6U,
  0x3de7448a3d8c84b4U, 0x3d4f3340bce0b04aU, 0x3d9d3d74be1f4b7dU, 0xbcc86cad3e26dd63U,
  0xbbc2f532bce88b8eU, 0x3d0cabd2bd5c29a4U, 0x3d9ad2523e30fe52U, 0x3e8b416cbbea2e8fU,
  0xbd0b9c01bd9aaa38U, 0x3c47e82f3d68f6d4U, 0xbe8df9fc3d5cb5dfU, 0x3d226ed33e43713dU,
  0xbdb210bbbdea9741U, 0x3e4bc7683bc54f79U, 0x3d0e5439b9eeebe7U, 0x39cc45edbd1e3480U,
  0xbd5e86dfbd3c0a27U, 0xbd8f8120bcededc9U, 0xbd52027b3d8b36d2U, 0x3c93e3e2bc630bc1U,
  0x3d00a3e33e10f63eU, 0xbe1b6e97bd3cc6d6U, 0xbda86eeabdb55014U, 0xbdb24898bcea482aU,
  0x3c9221373dc31ca9U, 0xbddb5952bd9a6031U, 0x3e460a67be1f5213U, 0xbc8c713abe0f1cbfU,
  0xbdbaf3f2be19c710U, 0xbd77c2143d89385fU, 0xbc2fa0553e154610U, 0x3dfb4f16bdfee276U,
  0xbd944ff5bdcda4afU, 0x3dbd6139bd2195b6U, 0xbe3a4ddf3d32e093U, 0x3c33b5e03e1e28ddU,
  0xbd68dece3d0fbd79U, 0x3d20a4f9bbba9dddU, 0xbdb27d36bda4968fU, 0xbe12c7283dcaa2e1U,
  0x3cde5da2bb91fbdeU, 0xbba3237dbcc74034U, 0x3d8d036fbe0b0456U, 0x3c9081eebdfe1770U,
  0x3e04d5203da03c7cU, 0xbdee9943bd8c6588U, 0xbd86c6d1bddeaaf3U, 0xbdcfd7d0bbc394d6U,
  0x3cf5adf83cd070cfU, 0xbcd1a669bdb7161eU, 0x3e18c15cbdfa4eafU, 0xbd57d397bd8641feU,
  0xbd8f6ab7bde241abU, 0xbcc2d03c3d26f7a3U, 0x3d53b69e3d094d45U, 0x3b0abc04bca26279U,
  0xbc87aa54bd8c8c1dU, 0x3d8188ec3db25f23U, 0xbdc9625d3dac1324U, 0x3cedf97f3d281dc8U,
  0x3c9813393dc22ec8U, 0x3d67398ebcc3c909U, 0x3d0202ddbd46f183U, 0xbd62fe023d93a458U,
  0x3dca817bbc3a62a8U, 0xbd5b9ce53b5f82faU, 0x3d6d0ffdbdc44ba2U, 0xbc3e5246bd929f52U,
  0x3dafde293c9b9039U, 0x3c131349bbaa25acU, 0x3b55b194bdbab8aaU, 0xbcc346b93d400cdbU,
  0x3b13bd173cb97554U, 0xbd68c10abceb2beeU, 0x3d834e83bd4509d5U, 0x3c4412433c523dcbU,
  0xbb8983543c84d358U, 0xbd90a90abe179b01U, 0xbca54d87bd9fd741U, 0x3d98bd0e3d584976U,
  0x3d700274be1d8abaU, 0xbe150274be1b2bd5U, 0xbc16c6f63d0d4c0fU, 0x3e48e999bde0e2a2U,
  0xbe4efe15be16a499U, 0xbde7fba4bd9323dbU, 0xbd1df66fbd325f95U, 0x3d5d3800bd899a11U,
  0xbd7873babe49e41eU, 0xbe8a5c3abe122e76U, 0xbcf5fd1fbda4c671U, 0x3eb52914be6979b6U,
  0xbd4197503c114ac7U, 0x3d571747bc62ee8eU, 0x3c8e35ef3dd028dbU, 0x3dae6144bcabc3d5U,
  0x3dddc18fbe357e16U, 0xbe403fe2bd4dd53cU, 0xbbfc8c063d8a7350U, 0x3e63bff0bd4236eaU,
  0x3d84c9f0bd82679fU, 0x3b323f263e325533U, 0x3e33f67a3c7739c8U, 0x3da14f8b3d030da3U,
  0x3dbadaf8be257262U, 0x3d8351733decf86cU, 0x3d62203bbd3d6acbU, 0x3d100c703ced41e9U,
  0xbc2df7c73d4d2869U, 0xbcc38cefbd834cd9U, 0x3d3c3a043e350dc6U, 0xba9f65d6bd35a245U,
  0x3e18f706bdac35a3U, 0xbd1d71ddbcc8cd56U, 0x3d9ff6f3be2a5e46U, 0xbd9468a5bdb94e6cU,
  0xbbda17123d572d26U, 0x3dd69cb9be02b4daU, 0xbb0f717d3d9bf137U, 0xbd5df8c4bd3b351eU,
  0xbdb07b933cf8d085U, 0x3dbe43d2bd4f41b9U, 0xbc963ff5bd00d936U, 0xbddd61a03e337a9aU,
  0x3d175134bd808a05U, 0x3e82b217bdce8d98U, 0xbd28545abe1f4e02U, 0x3c78eb42be0d092cU,
  0xbea1a887bde4582bU, 0xbd5942a1bd5705c3U, 0xbdca324c3d6e71fcU, 0xbe872c803e1ed27fU,
  0x3cb9ef203e0ca746U, 0xbe09b793bdb9bf2bU, 0xbe5cf99abeb99874U, 0xbe8245c43df8b5e1U,
  0xbe72abc13dd66c79U, 0x3ba3471bbc56e069U, 0x3d7ef649be2e94f8U, 0xbed49200bc722424U,
  0xbdd7f320bdc1f4dfU, 0x3a2299d33bae94f3U, 0xbe2d9eebbde7a16eU, 0x3cf22c4e3da55a5bU,
  0xbc9b80f8bd86a9b1U, 0x3e04b201bc2bb41dU, 0xbd9dd10a3ba27571U, 0xbea242053dd1a040U,
  0xbcee16c0be49d0eaU, 0xbd8076fabd9a9a0aU, 0xbdebab7abde8a913U, 0x3ddf1e03be3d212bU,
  0xbbadc7bb3e0d7851U, 0x3dc132dfbc4979f6U, 0x3dc5b568bd38b26cU, 0x3d8b0e98be02397bU,
  0x3db14ac23e241eefU, 0xbe02ae0bbd9aefc4U, 0xbe0a4cbebcf194c9U, 0xbeceb2bfbd62cbf5U,
  0xbdebc933ba2d7303U, 0xbe13f58cbec8f83bU, 0x3e4800bbbecf97acU, 0xbd9971d0bd17b302U,
  0x3c9a6e533e0b9242U, 0x3d2f69edbd94e3c1U, 0x3d238c29bd4fccdeU, 0xbc1e6e943e585531U,
  0xbc8e81c43c2f845cU, 0x3cd9f9dc3c9c3764U, 0xbd259e60bddb759bU, 0xbd8f6c073df78eb2U,
  0xbd2318c4be3c6d38U, 0xbdce0cefbbd29218U, 0xbdd8a9d7bd8a58fcU, 0xbe9ac386bdbfbd5aU,
  0xbdfa615bbc6c22dfU, 0xbdfcd46cbe9925aaU, 0x3e7e33a1be32ad41U, 0xbd50bd0cbe5cc295U,
  0x3d880b3e3ea6e4b5U, 0x3d6dd4f2bd49fc3cU, 0x3ddbe9873d91a160U, 0x3ccbed113e93aeaeU,
  0x3d2fe1c03d2db4b9U, 0x3d399c4e3d8b9f4fU, 0x3da124fcbd8db8f9U, 0x3d0457ba3e48043dU,
  0xbdc6b267be66fa18U, 0x3d9254a73cec14eaU, 0x3d9563d6bbc901f6U, 0x3eca243cbd0d269bU,
  0xbcbad01abdc210abU, 0xbde4c45e3e1aa644U, 0xbec03d7b3e25d4dbU, 0x3e1e48dabbc9013cU,
  0x3d4da4813e3465f3U, 0x3cfa1767bc927c79U, 0x3d9d53e13aa0089aU, 0xbdff28e43e27d1b6U,
  0x3d25f8c0bcb4a6c9U, 0x3d0de77b3add7a6cU, 0x3e28b8d9bda7ae95U, 0xbc364d94bd1d234cU,
  0xbc0afe70bda48a79U, 0x3dd371663d895497U, 0x3dfd6f293daab91bU, 0x3ea66787be275e9dU,
  0x3c03e6e7bd63b2fbU, 0x3c541ec03e1055a4U, 0xbe9a35353d55a4e2U, 0x3cf2a6173e03a4ddU,
  0xbdaee803be51bc7bU, 0xbd0f9f4abd81d140U, 0xbcceca593d865ac3U, 0xbe4be9b6be4fe356U,
  0xbd2bf139bdf719d8U, 0x3d81c17bbdeea891U, 0xbdcfd22fbd22b291U, 0xbd8b7752be07d432U,
  0x3dc57bc13da12aedU, 0x3d84b2a8be989c5bU, 0x3da545bb3d6beae1U, 0x3df1ab2abe314f58U,
  0x3e6fe9fbbdee2e09U, 0xbdb094c53d11a41fU, 0xbe09ad993a66408bU, 0xbd6a2e3b3d81f5e0U,
  0x3c8eb4b7bdcce8bbU, 0xbc9c68d6bdba28a1U, 0x3dfc8d64bc6cbf64U, 0x3dfd85ffbe151e57U,
  0xbd8e22623d47374aU, 0xbd94b2a13de2105cU, 0xbe54dec33de2315dU, 0xba1779a83c5a7ea7U,
  0xbe6486f83a720c71U, 0x3d5db6b53da1fa58U, 0xbd2ac19abe31f626U, 0xbdd6f3e5bd3975f1U,
  0xbe402b9a3cff5ed1U, 0xbda119153d174278U, 0x3e2917beb9627122U, 0x3d666596be68bd8dU,
  0x3e0b21e8be70f8deU, 0x3dfce135bdc2272eU, 0x3db3aef6bd881f7fU, 0xbc9e51b6be29c9a7U,
  0xbe1308a0bd009827U, 0xbcf523143c185983U, 0x3d7b55a2bc5178caU, 0xbc2b4bdc3eac3fbaU,
  0xbe12f3dfbdab1da9U, 0x3bfe223a3c5e4109U, 0xbd04567b3d7a493aU, 0x3e31aaf6bd2953e0U,
  0xbe298b9d3e315b1dU, 0x3dab5612bd0b9c3fU, 0xbe44c884bca630d9U, 0x3d92410e3db06896U,
  0xbe46c5bc3ded38a5U, 0x3c38d035bc268180U, 0xbdef670bbc74a087U, 0xbd81784d3d63deceU,
  0x3c6c9d6abd3d6610U, 0x3de9f2b2bced9d33U, 0x3e098a643d041573U, 0x3dadc59fbd5fbcd0U,
  0xbd21ad173e11c6ceU, 0xbda81b783ce1ffcaU, 0xbbb59bcf3d0762cdU, 0xbd6b80183e233738U,
  0x3d7eba46bd76ca35U, 0xbdbde441bd2bae7fU, 0xbd8f49a33c6f64b2U, 0x3c49b022be57ef64U,
  0xbdfa287dbc1019a8U, 0xbe0bb1a03dbfadabU, 0xbd8bd22c3de06cf2U, 0x3b4445a33e3089cfU,
  0xbd2a1cafbd1b432eU, 0x3dfafa643b944014U, 0xbd1e436c3d4aaf03U, 0x3d5110f1bbda8359U,
  0xbe1d87523d4e06a8U, 0xbd8e69443d84a855U, 0xbcd424d63ccde8f9U, 0xbdfcfbdf3e2aa0bcU,
  0x3cb17882bcd20e0dU, 0x3c6a89e7bbccf22aU, 0x3e682a053c99b872U, 0x3d5ec332be050baeU,
  0x3c873b303e0a9104U, 0xbebc9e823d863204U, 0x3e49ba6ebd280ad0U, 0x3ee2f21b3eb059a4U,
  0xbe96de503e45308cU, 0x3e8b42adbde8f944U, 0x3d5d1b343bf7da20U, 0xbf09900fbe95b57cU,
  0xbc45fe603ea603fdU, 0x3d8063c83e8ae5c9U, 0x3e45080abe661ffeU, 0xbda60edc3ebb59f6U,
  0x3e14a53ab9ffbc00U, 0x3ec6b014bc7b9460U, 0x3e9366c3bba0d980U, 0xbe9931b43e1b4e40U,
  0x0U, 0x8000000000000000U, 0x0U, 0x8000000000000000U,
  0x8000000000000000U, 0x80000000U, 0x0U, 0x0U,
  0x80000000U, 0x0U, 0x0U, 0x80000000U,
  0x8000000000000000U, 0x8000000080000000U, 0x80000000U, 0x0U,
  0x80000000U, 0x0U, 0x0U, 0x8000000000000000U,
  0x80000000U, 0x80000000U, 0x0U, 0x80000000U,
  0x8000000080000000U, 0x80000000U, 0x0U, 0x0U,
  0x8000000000000000U, 0x8000000080000000U, 0x0U, 0x8000000000000000U,
  0x0U, 0x8000000000000000U, 0x80000000U, 0x8000000000000000U,
  0x8000000080000000U, 0x0U, 0x80000000U, 0x8000000000000000U,
  0x80000000U, 0x8000000080000000U, 0x8000000080000000U, 0x8000000080000000U,
  0x0U, 0x8000000080000000U, 0x0U, 0x8000000080000000U,
  0x8000000000000000U, 0x0U, 0x0U, 0x0U,
  0x0U, 0x80000000U, 0x0U, 0x80000000U,
  0x0U, 0x0U, 0x0U, 0x0U,
  0x8000000000000000U, 0x80000000U, 0x8000000000000000U, 0x0U,
  0x8000000000000000U, 0x8000000000000000U, 0x0U, 0x80000000U,
  0x80000000U, 0x0U, 0x8000000080000000U, 0x80000000U,
  0x8000000080000000U, 0x0U, 0x8000000000000000U, 0x8000000000000000U,
  0x8000000000000000U, 0x8000000000000000U, 0x0U, 0x8000000000000000U,
  0x8000000080000000U, 0x0U, 0x0U, 0x0U,
  0x80000000U, 0x0U, 0x8000000080000000U, 0x8000000000000000U,
  0x8000000080000000U, 0x8000000000000000U, 0x8000000080000000U, 0x0U,
  0x8000000000000000U, 0x8000000080000000U, 0x80000000U, 0x80000000U,
  0x80000000U, 0x0U, 0x0U, 0x8000000000000000U,
  0x80000000U, 0x0U, 0x8000000080000000U, 0x8000000080000000U,
  0x80000000U, 0x8000000000000000U, 0x8000000000000000U, 0x0U,
  0x8000000000000000U, 0x8000000080000000U, 0x80000000U, 0x0U,
  0x0U, 0x0U, 0x0U, 0x8000000000000000U,
  0x80000000U, 0x0U, 0x8000000000000000U, 0x8000000080000000U,
  0x80000000U, 0x0U, 0x0U, 0x0U,
  0x8000000000000000U, 0x8000000000000000U, 0x0U, 0x0U,
  0x8000000080000000U, 0x8000000000000000U, 0x0U, 0x8000000000000000U,
  0x80000000U, 0x80000000U, 0x0U, 0x8000000000000000U,
  0x80000000U, 0x80000000U, 0x8000000000000000U, 0x8000000000000000U,
  0x0U, 0x80000000U, 0x80000000U, 0x0U,
  0x8000000000000000U, 0x80000000U, 0x0U, 0x0U,
  0x0U, 0x0U, 0x0U, 0x80000000U,
  0x0U, 0x8000000000000000U, 0x80000000U, 0x8000000000000000U,
  0x8000000080000000U, 0x8000000000000000U, 0x8000000000000000U, 0x0U,
  0x8000000000000000U, 0x8000000080000000U, 0x8000000000000000U, 0x8000000080000000U,
  0x0U, 0x8000000080000000U, 0x0U, 0x80000000U,
  0x8000000000000000U, 0x0U, 0x0U, 0x8000000080000000U,
  0x8000000000000000U, 0x0U, 0x8000000080000000U, 0x8000000080000000U,
  0x0U, 0x80000000U, 0x0U, 0x0U,
  0x8000000080000000U, 0x0U, 0x8000000000000000U, 0x8000000000000000U,
  0x8000000000000000U, 0x8000000000000000U, 0x8000000080000000U, 0x8000000000000000U,
  0x80000000U, 0x8000000000000000U, 0x8000000080000000U, 0x8000000080000000U,
  0x8000000000000000U, 0x8000000080000000U, 0x8000000000000000U, 0x0U,
  0x8000000000000000U, 0x80000000U, 0x8000000080000000U, 0x0U,
  0x0U, 0x80000000U, 0x80000000U, 0x8000000080000000U,
  0x80000000U, 0x80000000U, 0x80000000U, 0x0U,
  0x8000000000000000U, 0x8000000080000000U, 0x8000000080000000U, 0x8000000000000000U,
  0x0U, 0x80000000U, 0x8000000000000000U, 0x8000000000000000U,
  0x8000000000000000U, 0x8000000000000000U, 0x80000000U, 0x0U,
  0x8000000000000000U, 0x8000000000000000U, 0x80000000U, 0x8000000000000000U,
  0x8000000080000000U, 0x0U, 0x0U, 0x80000000U,
  0x8000000000000000U, 0x0U, 0x8000000000000000U, 0x80000000U,
  0x0U, 0x8000000000000000U, 0x8000000080000000U, 0x8000000080000000U,
  0x0U, 0x0U, 0x0U, 0x80000000U,
  0x8000000080000000U, 0x80000000U, 0x0U, 0x8000000080000000U,
  0x8000000000000000U, 0x0U, 0x0U, 0x80000000U,
  0x0U, 0x8000000000000000U, 0x80000000U, 0x80000000U,
  0x8000000080000000U, 0x0U, 0x8000000000000000U, 0x8000000000000000U,
  0x8000000080000000U, 0x8000000080000000U, 0x0U, 0x8000000080000000U,
  0x80000000U, 0x0U, 0x80000000U, 0x8000000080000000U,
  0x8000000000000000U, 0x0U, 0x80000000U, 0x8000000080000000U,
  0x80000000U, 0x8000000080000000U, 0x8000000000000000U, 0x8000000000000000U,
  0x8000000000000000U, 0x80000000U, 0x8000000080000000U, 0x8000000000000000U,
  0x8000000000000000U, 0x0U, 0x8000000000000000U, 0x8000000000000000U,
  0x80000000U, 0x80000000U, 0x8000000080000000U, 0x0U,
  0x8000000080000000U, 0x8000000000000000U, 0x8000000000000000U, 0x80000000U,
  0x8000000000000000U, 0x0U, 0x8000000000000000U, 0x80000000U,
  0x0U, 0x0U, 0x8000000000000000U, 0x80000000U,
  0x0U, 0x8000000000000000U, 0x80000000U, 0x8000000000000000U,
  0x0U, 0x0U, 0x8000000080000000U, 0x8000000080000000U,
  0x8000000000000000U, 0x8000000000000000U, 0x8000000080000000U, 0x8000000000000000U,
  0x80000000U, 0x80000000U, 0x0U, 0x8000000000000000U,
  0x80000000U, 0x8000000080000000U, 0x80000000U, 0x0U,
  0x80000000U, 0x0U, 0x0U, 0x8000000080000000U,
  0x80000000U, 0x8000000080000000U, 0x80000000U, 0x8000000000000000U,
  0x8000000080000000U, 0x8000000000000000U, 0x0U, 0x80000000U,
  0x0U, 0x8000000080000000U, 0x80000000U, 0x80000000U,
  0x8000000000000000U, 0x8000000000000000U, 0x8000000080000000U, 0x8000000080000000U,
  0x80000000U, 0x0U, 0x80000000U, 0x8000000080000000U,
  0x0U, 0x8000000000000000U, 0x8000000080000000U, 0x80000000U,
  0x8000000080000000U, 0x8000000000000000U, 0x8000000080000000U, 0x0U,
  0x80000000U, 0x0U, 0x0U, 0x0U,
  0x8000000000000000U, 0x0U, 0x80000000U, 0x80000000U,
  0x8000000000000000U, 0x0U, 0x80000000U, 0x80000000U,
  0x0U, 0x8000000000000000U, 0x8000000000000000U, 0x8000000080000000U,
  0x8000000000000000U, 0x0U, 0x8000000080000000U, 0x80000000U,
  0x8000000080000000U, 0x8000000000000000U, 0x8000000080000000U, 0x80000000U,
  0x8000000080000000U, 0x8000000080000000U, 0x8000000080000000U, 0x8000000080000000U,
  0x8000000080000000U, 0x80000000U, 0x8000000080000000U, 0x0U,
  0x8000000080000000U, 0x8000000080000000U, 0x80000000U, 0x8000000000000000U,
  0x0U, 0x8000000000000000U, 0x8000000000000000U, 0x8000000080000000U,
  0x0U, 0x80000000U, 0x80000000U, 0x0U,
  0x0U, 0x0U, 0x8000000080000000U, 0x80000000U,
  0x80000000U, 0x0U, 0x0U, 0x8000000000000000U,
  0x8000000080000000U, 0x80000000U, 0x0U, 0x8000000000000000U,
  0x8000000000000000U, 0x80000000U, 0x8000000000000000U, 0x8000000000000000U,
  0x8000000000000000U, 0x8000000080000000U, 0x0U, 0x80000000U,
  0x8000000000000000U, 0x8000000080000000U, 0x8000000080000000U, 0x8000000000000000U,
  0x80000000U, 0x8000000080000000U, 0x0U, 0x80000000U,
  0x8000000000000000U, 0x8000000080000000U, 0x80000000U, 0x8000000080000000U,
  0x0U, 0x0U, 0x8000000000000000U, 0x8000000000000000U,
  0x80000000U, 0x80000000U, 0x80000000U, 0x80000000U,
  0xbc21c1de3d4c69a3U, 0xbc65a8a5bcc70e2dU, 0xbbd58e233d81428eU, 0x3bdded893d1d4e71U,
  0x3b8a4acbbd3c4370U, 0xbc031f7bbd6598b3U, 0xbc88f97f3d452733U, 0xbcdfb7bdbd8e80e2U,
  0xbd2d3b5a3d004a3aU, 0xbd027d633c3497dcU, 0xbc904209bcfd5bb5U, 0xbd33ab99bd18cdc8U,
  0x38e5eba23cbe0b75U, 0xbd4d68f5bd4b084dU, 0xbc99cc4c3cb600baU, 0xbca7c0b13cdcf86bU,
  0xbc0cb497bc8ce67aU, 0x3b30efcf3c6d59d6U, 0xbbacf1103cf92659U, 0xb9a46c2dbc2fae55U,
  0xbcab0aedbd08300cU, 0xbbd892b43b9378d5U, 0x3c613662bb967d5eU, 0xbbd03f443a6e0b0eU,
  0xbc8f31103c157c17U, 0xbc2deab53c863a7bU, 0xb9f92482bd35ab4cU, 0xbc10d6243bd9a4afU,
  0x3bff8b163cc54759U, 0xbc55df61bc58122aU, 0xbc00ff823c7cf6f1U, 0xbcc7f47d3cadeec1U,
  0x3bca21173cfe5607U, 0x3bcab77cbcb1881dU, 0xb9936ed03ccc3e57U, 0xbb06870bbc9a0066U,
  0x3c5331c8bcbde13aU, 0x3c56fb4c3c87e6c3U, 0x3ca589263d2ed983U, 0xbce6fd32bc89bebaU,
  0xbb6ecb9dbcef7e12U, 0x3c4968b53d35d178U, 0x3d139e78bce7871cU, 0xbc98f83ebc14df3aU,
  0xbc4ae4683d5fb061U, 0xbcb31f653b78bf5cU, 0xbcb15ecfbb28c9e6U, 0x3bd17f10bc69a04bU,
  0xbce5da883baf8365U, 0xbc4bbfa3bd171e59U, 0x3c5d36383da92859U, 0xbb352f8f3cf7adc7U,
  0xba9221e8bccc6940U, 0xbb730eb4bd048d79U, 0xbbce7b743d09a4b8U, 0xbd934dd6bd2fa6f4U,
  0xbd206958bc96c4d1U, 0x3d375e663c8dea7bU, 0xbd4eca9dbc7915d6U, 0xbd4190ddbce5ed75U,
  0xbc0a01143b2392f6U, 0xbd20222fbcf1c115U, 0x3bfb436a3cf6de5eU, 0xbd047671bbcde922U,
  0xbc13283dbc73aeecU, 0xba8608b43cd52730U, 0xbc651fd53cbae420U, 0xbc583aa4bc9a77a1U,
  0xbd0c09e0bcb7d8bbU, 0xbc2369f7badb445aU, 0x3a65f070bd24bf04U, 0xbc317d563c61bb73U,
  0xbce49e08bbcf516fU, 0xbc408ab43c58780dU, 0xbcc56fb4bd1eb08fU, 0x3c2790113ce6e39eU,
  0x3beb9cd9bb8cc60bU, 0x3b3a9a403c594878U, 0x3c38693c3ac64130U, 0xbc927522bd0bf1dfU,
  0xbb0873b5bcfa9103U, 0xbc837bd83b84fcb3U, 0x3bf780b23c95ab49U, 0x3b55c239bca2a440U,
  0x3c1b00cbbcbf444fU, 0x39659799bd0a9005U, 0x3bcb2270bbd9f239U, 0xbcc6a906bc2bcc70U,
  0xbc8a32aebcbc32f6U, 0x3bcf04d53d516789U, 0x3c9dfd32bcf356e6U, 0xbb21ad2fbc176a7cU,
  0xbcb9b0493ca0b4ddU, 0x3b8e08b13d01f379U, 0xbb68e794bd06d8daU, 0xbcbd238fbca0d226U,
  0x3c8b2b203c8ca521U, 0xbb6edcecbd12cab9U, 0xbc2404403d910f51U, 0xbbb2162e3d1d2c5dU,
  0xbc347b36bc9f39bfU, 0xbcc8a418bc881951U, 0xbca1b7d73cbaaf2fU, 0xbd43dee1bb1fed07U,
  0xbd54f05fbc4a159cU, 0x3d68db6a3cc3c1a3U, 0xbce2c284bad8985eU, 0xbbabe7c4bc006595U,
  0xbcdc91223d09d101U, 0x3bb244f3bc809c6cU, 0x3c6f42873ba2fa68U, 0x3b97d95ebc7f532bU,
  0x3acbf4e13d120cfdU, 0xbc394cf5bb96a7b9U, 0x3c51e7b03d773c0aU, 0x3b678923bcdb2d49U,
  0xbcd9d0783c25dc7aU, 0xba506c513d004956U, 0x3c034c903bdbc2d8U, 0xbc6f77453d1f4515U,
  0xbd6672133b97ee3eU, 0xbc377a113ca1d352U, 0x3b6c3ea3bca73991U, 0xbd210c693ca27409U,
  0x3b3aae17bcba130dU, 0x3cb899bf3c859e1cU, 0xbb401a9d3cb9faa5U, 0x3993af93bd3ec228U,
  0x3c89ba8a39b8c2ccU, 0x3983128abd30ff8cU, 0x3ca71b8d3cd4442cU, 0x3cd6fa973c28a5a3U,
  0xbba3de9dbd133289U, 0x3cbc1188bd750b02U, 0xbbdfa8183c23f047U, 0xbcc5b0113d34fc55U,
  0xbd03bd21bc2df31aU, 0xbd5e3736bb60e442U, 0x3ccca852bd254685U, 0xbc274c43bbb1b50aU,
  0xbd022ec23cd3ebbbU, 0x3cbcdfc23d073036U, 0x3cecde82bd20abfcU, 0xbd37b926bc916a8bU,
  0x8000000000000000U, 0x0U, 0x0U, 0x8000000000000000U,
  0x8000000080000000U, 0x8000000000000000U, 0x8000000000000000U, 0x80000000U,
  0x80000000U, 0x0U, 0x8000000000000000U, 0x80000000U,
  0x8000000000000000U, 0x8000000000000000U, 0x0U, 0x8000000000000000U,
  0x0U, 0x80000000U, 0x8000000000000000U, 0x8000000080000000U,
  0x8000000000000000U, 0x0U, 0x8000000080000000U, 0x80000000U,
  0x8000000080000000U, 0x80000000U, 0x80000000U, 0x0U,
  0x0U, 0x0U, 0x8000000000000000U, 0x8000000000000000U,
  0x80000000U, 0x0U, 0x0U, 0x8000000080000000U,
  0x8000000000000000U, 0x8000000000000000U, 0x8000000000000000U, 0x8000000080000000U,
  0x80000000U, 0x8000000080000000U, 0x0U, 0x0U,
  0x0U, 0x8000000000000000U, 0x0U, 0x8000000000000000U,
  0x0U, 0x80000000U, 0x8000000000000000U, 0x0U,
  0x0U, 0x8000000000000000U, 0x0U, 0x80000000U,
  0x8000000000000000U, 0x80000000U, 0x80000000U, 0x8000000080000000U,
  0x0U, 0x8000000000000000U, 0x80000000U, 0x8000000000000000U,
  0x0U, 0x0U, 0x0U, 0x8000000080000000U,
  0x80000000U, 0x8000000000000000U, 0x0U, 0x8000000000000000U,
  0x80000000U, 0x80000000U, 0x8000000080000000U, 0x80000000U,
  0x8000000000000000U, 0x8000000000000000U, 0x80000000U, 0x8000000000000000U,
  0x8000000000000000U, 0x0U, 0x0U, 0x80000000U,
  0x8000000080000000U, 0x8000000000000000U, 0x0U, 0x0U,
  0x80000000U, 0x80000000U, 0x0U, 0x0U,
  0x8000000000000000U, 0x8000000000000000U, 0x8000000000000000U, 0x0U,
  0x80000000U, 0x8000000000000000U, 0x0U, 0x8000000000000000U,
  0x80000000U, 0x8000000000000000U, 0x0U, 0x80000000U,
  0x80000000U, 0x0U, 0x8000000080000000U, 0x80000000U,
  0x0U, 0x8000000080000000U, 0x8000000080000000U, 0x0U,
  0x80000000U, 0x0U, 0x0U, 0x8000000080000000U,
  0x80000000U, 0x8000000080000000U, 0x0U, 0x80000000U,
  0x80000000U, 0x8000000080000000U, 0x80000000U, 0x80000000U,
  0x8000000000000000U, 0x0U, 0x8000000080000000U, 0x0U,
  0x80000000U, 0x80000000U, 0x8000000000000000U, 0x80000000U,
  0x80000000U, 0x8000000080000000U, 0x80000000U, 0x8000000000000000U,
  0x8000000000000000U, 0x8000000080000000U, 0x80000000U, 0x8000000000000000U,
  0x0U, 0x8000000080000000U, 0x0U, 0x80000000U,
  0x5069fd080001e69U, 0x10c3957a00001e5bU, 0x80001e5e80001e65U, 0x8a8c31b01006d0aU,
  0x1cc998d880001e43U, 0x9c08a64880001940U, 0x12e8f27c00001e5aU, 0x800237ae80001e56U,
  0x80160ae7172239b1U, 0x80001e4a80001e65U, 0x80d3fd700001e6eU, 0x80001e5c0d05ffa6U,
  0x80001e5609b1daf1U, 0x9c1b5b981da2a8dcU, 0x80001e5d00003a64U, 0x805935bc80001e48U,
  0x74fb24f80001e48U, 0xd20554880d640daU, 0x80001e5180001e63U, 0xd5e01e600016df5U,
  0x1473186380001e46U, 0x90c9dd4f05e6bc35U, 0x1371cab200001e57U, 0x1e5080001e5dU,
  0x80004131171753a0U, 0x80001e4380001e5dU, 0xa8da1b380067cd7U, 0x1074a85c16573U,
  0x8006a5a81195c2d4U, 0x1c2353361ea817f1U, 0x80001e57058c1acaU, 0x61b8d9680000e98U,
  0xf531a3f80001e5eU, 0x12441c9000001e4aU, 0x80001e4400001e46U, 0x1183fbbd0003ef57U,
  0x1801ed600001e53U, 0x97aa7e95069288d0U, 0x168e25bb80000c1fU, 0x8231d0ba80001e51U,
  0x8772e4b11206f654U, 0x3bf180001e57U, 0xb9f69d680001e53U, 0x9201a7cf8e8c03f3U,
  0x80001e5694492f85U, 0x189e64bb152b5c14U, 0x1e501246a231U, 0x94353a4c86f9a509U,
  0x423a00980001e64U, 0x12a20a0200001e63U, 0x80001e5880001e65U, 0x11e530bc0388a64bU,
  0x10ae398980001e4eU, 0x9c13c6870c42af83U, 0xe0f78fa000016f6U, 0x2d8af3e98417d8bU,
  0x833a75859a0164d7U, 0xa01941780001e55U, 0x111333fc00001e46U, 0x8eb80c2b03ed1a49U,
  0x80001e54148910d1U, 0x9e3e399b1d2a8fb4U, 0x80001e548000063eU, 0x872fc36a0a8ebf28U,
  0x46f90d5800c9616U, 0x1219db0889de8b46U, 0x80001e5080001e45U, 0x13a9f748000042e8U,
  0x167f274480001e55U, 0x91bcb9ea1331a99eU, 0x105db433801ad876U, 0x428f03093160042U,
  0x84263e4a149a30faU, 0xb33e4b480001e50U, 0xacc543487884b7dU, 0x46e9b1c84ec33baU,
  0x8e9ef44d16e28a75U, 0x9c0a1f1922dbe123U, 0x80001e5f10daf599U, 0x8ac80e2700ab4ef6U,
  0x9da8ae080001e5bU, 0xfe5427300001e5aU, 0x80001e5180014459U, 0x1600aa44000115beU,
  0xc75dd0080001e4bU, 0x981fe3ba0d811365U, 0xb9a047583cf3436U, 0x80001e499828bdfcU,
  0x8a2c9a1a13414c84U, 0xd03ade80001e55U, 0xdab39f60385751fU, 0x9596648f989d7063U,
  0x336c9d09fe8bU, 0x9c87f5111b3ff820U, 0x1e461cd28c3bU, 0x9b53b6ec80d748c3U,
  0x1319cab680001e4bU, 0x1243db0a00001e57U, 0x80001e4980001e59U, 0xc6e99ec800018a3U,
  0x15ed8a8c80001e55U, 0x9d6d70aa80001e43U, 0x1dec3e00001e4aU, 0x49383391a235611U,
  0x8ced83ae1010f12cU, 0x800000d780001e50U, 0xb1c9a1700001e63U, 0x42405870f725257U,
  0x80001e50161026b4U, 0x9e53ee361e724cc2U, 0x80001e6605a7ef53U, 0x801a848380001e50U,
  0x14ff40e680001e43U, 0x18b266c191267ae5U, 0x31f980480001e49U, 0x12808a7680001e45U,
  0xd76049a80001e5dU, 0x979103ac00001e48U, 0x18a196200001e52U, 0x800013021b153b14U,
  0x8a2af96011a8f593U, 0x80001e4880001e58U, 0x90a0f00700001e58U, 0x744ee90528104cU,
  0x8fd07bad170eec32U, 0x1d3206c61ff1d2cfU, 0x80001e541307bacfU, 0x9110364700001e61U,
  0x11245d9580001e4cU, 0x1791a4ed8031ed19U, 0x80001e4e0000e14fU, 0x1537b2fa80001ac1U,
  0x81e036380001e5eU, 0x9982040580001611U, 0x2b763be82ca0272U, 0x80001e61142caea6U,
  0x90773ba51039b8c4U, 0x80001e5880001e43U, 0x873f20109825c54U, 0x9584edfd96a068fdU,
  0xcf10a0419638694U, 0x9b4306a89890cf54U, 0x1e631d7295b8U, 0x9b33f5ba00001e4fU,
  0xbd8683353d99b5b4U, 0xbdf2bb3ebe02f48bU, 0xbd52c580bcf12762U, 0xbdb1e6d93d569435U,
  0xbdcb48e4bd2f7fd9U, 0x3d1462d3bdfe0de3U, 0x3d96f7783e25aad6U, 0x3af78cc7bd210570U,
  0x3d2b89f63e06fdf8U, 0xbe2c86c6bd877be4U, 0x3d23c0393d3e35c0U, 0xbbd8989abd60fa35U,
  0x3cb0ee103d4feea7U, 0xbd047a67bc8fce16U, 0x3dc303703d598f89U, 0x3cd145923e070ec8U,
  0xbe106ebb3e401f7aU, 0xbd8d2615bd5290dbU, 0x3d0cd9c3bd95fd22U, 0x3dc5a7bebd3b1e60U,
  0xbe4cd4d7bcda187eU, 0xbde5742cbe03e1c8U, 0xbc0997463d3f5b8eU, 0xbcfdd375bcf16ff4U,
  0xbd74f7c13dfbcb1aU, 0xbd0e9ba3bdb3a090U, 0x3def6c033da68784U, 0xbd9b298cbd91f61dU,
  0x3d105ddabdf4893fU, 0x3c04f276bde7e84eU, 0x3d745f3cbd11834aU, 0x3cd5ec4a3e4381feU,
  0xbe0a0709be00d6e2U, 0x3cd6f4513daa9af0U, 0xbd11a339be392d64U, 0xbcd4be5c3d154f2aU,
  0xbd3354113d9b8049U, 0x3d84efe7bd1329e6U, 0xbe2fc116be3ad296U, 0xbdcf1474ba7e0530U,
  0xbc0971903bd1cad3U, 0xbd049e1bbdb815bcU, 0x3ba8776abc993107U, 0xbcbfea1d3d5d9c59U,
  0x3d2b6c58be48051fU, 0x3c2ab78c3deb1afeU, 0x3d8ad4bbbe0903dcU, 0xbd915571bd2e728eU,
  0xbbd3fb30be6ad013U, 0x3da85e1bbdc36457U, 0xbdb125243cb5ddadU, 0xbdd94e8dbcd29cf8U,
  0xbd6db56bbcf1638dU, 0x3d1ba101be416b39U, 0xbe47a871bd25f712U, 0xbe43771fbde99164U,
  0xbe0163dbbd8c47d6U, 0xbddda690bda2c62eU, 0xbe1bc3c93d8ab892U, 0xbd8638c93cd1d10bU,
  0x3d08cc813c9059a3U, 0xbb7c30c2bd0adb95U, 0x3d5f819fbc7b5b2fU, 0x3cd85feebd23ee39U,
  0xbde0fd0c3ddc716eU, 0x3ca8045dbddb2763U, 0xbdec0aef3d8b0c72U, 0xbcc6d34ebd79417eU,
  0xbe0eec683cf486acU, 0x3d913e943b902187U, 0x3d8852f83d8b69beU, 0xbd8bd4a7be061ab4U,
  0xbd374474be2ca5b7U, 0xbdafc5de3e12f8c1U, 0xbcc94b57bd272540U, 0xbd7fbbd5bd370fa9U,
  0x3ced3c7b3d8b2209U, 0xbe1a9454bd84c3cbU, 0x3c3b7dba3e396a39U, 0xbdea0f12ba94fd47U,
  0x3b106f86bdcc6bfbU, 0xbd3a9d3bbd64b9bcU, 0x3c0aeea7bd394d06U, 0x3d9c3afe3d43808aU,
  0x3dac68fe3d8714f7U, 0xbd4607ac3d60afc4U, 0xbb95c8eabd830725U, 0x3d01eb3e3af7925bU,
  0x3ca765343d32084dU, 0x3e0834b53d96e8ccU, 0xbc4a7699bc352750U, 0xbdefd0ad3d0129a9U,
  0xbcc7733cbc907938U, 0x3ca312c9bbb07f33U, 0xbc9d2b133cbe2e3dU, 0xbdf82570bae8d16eU,
  0xbd9000b8bd1f5964U, 0xbbb4aee33d8c139aU, 0xbc0aa470bbd58338U, 0x3cd283f83c21192aU,
  0xbcec012a3c17ad43U, 0xbd2d57c3bd76dff4U, 0xbdd1a641bd3c36bdU, 0x3bb6ca13bdcb2dafU,
  0xbbb864813d2c8d06U, 0x3dbbc0d2bdce3e11U, 0x3d23684bbdc32618U, 0x3daab3813dbd56f4U,
  0x3c8c40733d450fa6U, 0x3db5d4fb3be1d623U, 0x3ccc6b84bd846801U, 0xbd812eaa3ce1baa4U,
  0x3d926306bcce855eU, 0xbd96633a3d05b72eU, 0x3d8b723bbc981a8cU, 0xbdae098ebb0ea94aU,
  0xbde5b58fbb37ede3U, 0xbdc78ac13d341462U, 0xbcec820ebd065ccaU, 0xbe1736c8be0447a9U,
  0x3ba45829be0a1e02U, 0xbe0a32953dd6bc56U, 0x3c80bc49bc0934ecU, 0x3d4d031ebd2427fbU,
  0xbc798f793d064906U, 0xbdbeedb2bdba3221U, 0xbd325cf5be339abfU, 0xbd1e4efebde0ae4eU,
  0x3dc25e75bd195cb6U, 0xbdbb88263dc3ad5cU, 0x3dd563adbdbdf99cU, 0xbc82de583d72e8cbU,
  0xbc2017203d172b1bU, 0xbe1b14723cd9151eU, 0x3dfd3be1bdd834f0U, 0x3c9e547bbced875eU,
  0xbd8043bbbd1a29a2U, 0x3ddfe093bb00a608U, 0x3d2f04edbd88a3c7U, 0xbdba98eebdb2f71bU,
  0xbdedf5debe002dffU, 0xbd8133b0be1e9db9U, 0xbd9e669bbd978e54U, 0x3df3271ebd850c39U,
  0x29caf75f13d16839U, 0x25e0a5602884bb2fU, 0x21bd16690784cb92U, 0x2dbbaaff2c79df43U,
  0x29a1f2ec1c5edb76U, 0x2b59108c2ddb9a68U, 0x27baf56619d5cc9aU, 0x9ad29a241aa28873U,
  0xfd0d632206588c2U, 0x1e2316112a0cc5edU, 0xa5abbe9a1fe1056eU, 0xa227eebb2f2e12aeU,
  0x200ff6d2245835d5U, 0xac3e42a826523bc9U, 0x253532e9213a9e35U, 0xa1fc96878fa2342bU,
  0x26076a588d2a5bc7U, 0x270d5b8d2ae2f659U, 0x23e07e019ff749adU, 0x2ed365d92a6e2262U,
  0x2557522e1e65ab2fU, 0x3394c0132e232f50U, 0xa977bf0f21d7c332U, 0xa524b47e16057711U,
  0x99a7f08c21402dc1U, 0x227d9caf24dac9f7U, 0xa4fc951e22cae69bU, 0xa37a3019313f07eaU,
  0x9f02fd4c28ec4abeU, 0xa89693479d22b8c5U, 0x2289d24917b122e2U, 0x2b1f9e439d03a4b9U,
  0xab10c49d8f22aba5U, 0x281012c5a791825bU, 0x181a4954a2bceb37U, 0x2ee2c0ab2dd712f8U,
  0x2bd32f551e71a01eU, 0xa257d29e2df5b943U, 0xaa0a75f0234a4974U, 0xa5208c1ea2d9873eU,
  0x9d08955420a01716U, 0x1f8fde9e1dfc98f6U, 0xa6d349141ad8b1c4U, 0xa49325252e2c2c92U,
  0xa48637f0acf243d8U, 0xab1b82c225dfb06cU, 0x27b5e02a21dcfa72U, 0xaef630c3aa5c32d0U,
  0x2996b8711420941bU, 0x29cbdd63281a3b0cU, 0x27147bf38d1c1864U, 0xaac1c7ff2c85cbd2U,
  0xa137a1dd1fb78510U, 0x2b77ea3c293b0212U, 0x2ba4ff0b23c6211dU, 0xa78e6f00ac07bd90U,
  0xa099264a1e127834U, 0x219a686e290337aeU, 0xa63906e32581c612U, 0xaa06700a2db9cc6fU,
  0x2237a26726c7b14bU, 0xae63148424326e9bU, 0x9af3122020022301U, 0xa296506a2787adccU,
  0x27d149da9115172aU, 0x2c6bfe982b820cc1U, 0x210f5d2b214529f8U, 0x2b535e5c2a07bec3U,
  0xad85b4332337525bU, 0x33621e632b6cb182U, 0x2ea465ff27009c28U, 0xac77e9deab1b504fU,
  0x202c286d21a0d334U, 0x2872597a252b43e6U, 0xa66d40a4264437f7U, 0x28f3e7b3307e14e8U,
  0x214b143929614bf4U, 0xab566036a42ced3bU, 0x200710100c02a44cU, 0x2ce8d1c0292110b9U,
  0xae94d0d6216cd1e6U, 0x2a33ef56abd24c85U, 0x1c451f5ba5bf2b28U, 0x2f075f562e1fdd41U,
  0x25c72298260f9472U, 0xa6b127182cad3a92U, 0x2d0e95b7253d8c31U, 0x27e8f97eaf6004e3U,
  0xa40758c91f81484bU, 0x23eac21721804ce6U, 0xa803da172961e3cfU, 0xa3ec7b342d864ad3U,
  0xacb87acbaadaa6e0U, 0xae8981fd220627deU, 0x228df35b2574d164U, 0xb1c1252923efc6ccU,
  0x2f896a6b8738005bU, 0x29cc4696277a3a23U, 0x1f12f65f94b4fd4bU, 0x2ce480202ba2a4f3U,
  0x27d94e6f230f1dacU, 0x2a861908276c2547U, 0x20ae6c21262aad8dU, 0xa9902eac1a1317b7U,
  0xa4b11e4b203c9512U, 0x2361457f2a747555U, 0xa2e0aa121da79d67U, 0xac874b882d104c0bU,
  0x22d7622d2aba7f28U, 0xa98b62a928b0705fU, 0x2301f0f523ffec14U, 0xa6fba08d255c7502U,
  0x304bce1d1518c1d3U, 0x29230f332ceb58b1U, 0x209fa36a227700ceU, 0x2b19703829332914U,
  0x27e0551525bcce8aU, 0x330f63652860ec4fU, 0x1c4726ca29b191caU, 0xa71cfd072348553eU,
  0x21e5aa9c2058e3b2U, 0x2301b9f726e5259aU, 0xa782d6af1f42f401U, 0x23bba9a430ae17d1U,
  0x26aee22f2d405a1fU, 0xa63c94a3a16b2507U, 0x21fb046f136e9069U, 0x2dfb9bf9144872f7U,
  0x3100b05e194bd668U, 0x26ea0fcfacd1d2a6U, 0x1c3c9334290d5000U, 0x2eb651bf2c937019U,
  0x308c9d601e6b9f5dU, 0xa7aefe682647c8fcU, 0x1e93e82921e04f3eU, 0x262838baa6e5de8eU,
  0xa31072ed24ff60c1U, 0x1f28b5af2587b2ffU, 0xa91ef4e7243c1e33U, 0xa237bcec2e0761d1U,
  0xad6a1fac2b2b9d01U, 0xab2c69cda855012aU, 0x9e134f5629094c0dU, 0xb2d5e9b01c5e564aU,
  0xbd80ab6e3cb8bf7bU, 0x3d0e4518bcaeecbfU, 0xbd4c911cbda65957U, 0x3d23f87dbcffe0ebU,
  0xbc1081863c412208U, 0x3cc7e77abcd9eeedU, 0xbd8ea42d3d94ad9fU, 0x3cbebdc23c58664dU,
  0x3c62baed3d2bbc9fU, 0xbda2ed8ebc6c2e9eU, 0xbc330658bdadddb1U, 0x3bc0be09bd09769dU,
  0x3cfb53c4bdfff8e4U, 0x3ce9f9d5bb837fa8U, 0x3d8111fbba7c8977U, 0x3b0596c93cecfe4bU,
  0xbcb3615fbdd47b77U, 0xbdf22ceabd0fdf85U, 0xbca8440ebe4d090bU, 0xbdadf01abcc3c8e9U,
  0xbcaad325bd161b25U, 0x3bfc1ce6bdb58464U, 0x3d73206d3d5d0ad0U, 0x3cb424ddbdf8e265U,
  0x3d32604c3d8c4634U, 0x3b848b8a3b68e109U, 0x3d93cedbbe1d5cf5U, 0x3da2d684bbc2a718U,
  0xb995c708bd7ee2ccU, 0xbc918fda3d5c5588U, 0xbd70a76ebd03faeaU, 0xba9ee9aa3d80622aU,
  0xbd031b70bd7d9220U, 0xbc43320f3cc0700aU, 0x3d3df38fbd61ce46U, 0xbde0c4e63d4cddccU,
  0xbc853a473d457f9eU, 0xbd89303cbc812401U, 0x381b09823a44e7a9U, 0xbd87d2e9be034b0bU,
  0x3d8042a2bd14f3e2U, 0x3dfe9796bda14100U, 0x3db9354a3c9194a9U, 0x3ca02084bd31c1e4U,
  0xbd0b10af3d9c0535U, 0xbd07c7f53ba6101aU, 0x3d371059bced2001U, 0xbdb759683a0991c8U,
  0xbd1a54073d022475U, 0x3d25a55ebc69e35eU, 0xbb9865933d59ffcbU, 0x3ce6d7fabd1b8ebaU,
  0x3c17a2b0bcef7ac8U, 0x3d6329733c545414U, 0xbcd878543c785ebeU, 0xbd6c47823b7b347bU,
  0xbcf47eb1bcec38f1U, 0xbd9d90373d2af50aU, 0xbd56a8683c555a68U, 0xbc502b9e3cd1c152U,
  0xbbc966603c19d20cU, 0x3c1b9b18bccc0d9aU, 0x3ca64809bbeb36dbU, 0xbc50da9c3c3e3860U,
  0x3c917b31bc879098U, 0xbd2b7b60bc89cf2aU, 0xba1d11aa3c9a5a2dU, 0xbd7ad8f23c454291U,
  0xbd5b111cbd95d7a4U, 0xbc49dceabe0e2923U, 0xbc9cefabbcec77d3U, 0xbcb8ed2fbb4460a4U,
  0xbc0090e13a2c034fU, 0xbd5311943d0d190aU, 0xbd5ece1abd340a86U, 0xbcc14806b9c76d04U,
  0xbd6002f0bcc682b9U, 0xbcc48ec9bd730dc8U, 0xbd5747683d09abdeU, 0xbcf9214d3c88b43aU,
  0x3bf7cb98bce6a6a6U, 0xbdb65f0dbb867a3aU, 0x3d029de0bdb26dcaU, 0xbcd143ea3da197a9U,
  0xbd7f84223d2c3ecaU, 0xbd0f485dbdc539daU, 0x3da7a748bcb4710aU, 0x3c895d7cbdbef130U,
  0x3c8defbebc4c18a3U, 0x3d1092c4bd6868c5U, 0x3d38e776bd8bb526U, 0x3d23df14bd04e634U,
  0xbdb5b2a83d182780U, 0xbe0a94bb3d6ea2f6U, 0xbc61d4c33d018cb2U, 0x3dcc86e03b5337e7U,
  0xbc319df63d32cbeeU, 0x3afbe7e5bcd6b4c7U, 0x3d4ee6573cdb8399U, 0x3d2f9205bc9419fbU,
  0x399f04aabc5ae693U, 0xbc95ac023d036cadU, 0x3bffdc643ca77eabU, 0x3a80d2d8bd122c50U,
  0xbb3cb2243c84d5fdU, 0x3c481cfe3c71e6c5U, 0xbd7af883bbcf57b5U, 0xbd6d25f3bc28a0fbU,
  0xbcd888583c8d066bU, 0x3d38a662bc70beacU, 0x3d04798f3c3470f3U, 0xbb95b022bc7f5efcU,
  0x3caf5fb13cac19bdU, 0x3be8b727bcfd1a3aU, 0xbba45b933d958661U, 0x3b8bd5b83c462413U,
  0xbcb2de79bcc82968U, 0x3c0b9c1ebd871304U, 0x3c3f1bfcbceb5543U, 0x3c025483bbb55659U,
  0xbd9efbf0bd3dc780U, 0x3cadd2eb3d19d8e0U, 0xbd82c4e83cebfba5U, 0xbd9bf2e33d1cea24U,
  0xbb7b689d3d8ac2dcU, 0x3ca2cd29bd87a608U, 0x37cf4b4dbd3082fcU, 0xbcf29aeabcc6564fU,
  0x3d8b40c6bb5f470fU, 0x3c8f6687bcdf8d0fU, 0xbd8d6a793cea6646U, 0x3d19f7e13d8a95b4U,
  0xbcc428e9bc6940fbU, 0xbcf0604ebcc50d08U, 0x3c4ce805bd49c707U, 0xbd2d086ebd932d38U,
  0x3cee6281bdce04f2U, 0x3d12b32c3d37fbfaU, 0x3cd33a1c3adbd74cU, 0xbd51ece73d8e943aU,
  0xbc232b9f3d040892U, 0xbcc94e97bddf6224U, 0x38e2bef3bd3ec033U, 0xbd6b95aebd81e83cU,
  0x0U, 0x80000000U, 0x0U, 0x8000000080000000U,
  0x8000000080000000U, 0x80000000U, 0x0U, 0x8000000080000000U,
  0x8000000000000000U, 0x8000000080000000U, 0x8000000080000000U, 0x8000000080000000U,
  0x8000000000000000U, 0x80000000U, 0x80000000U, 0x8000000080000000U,
  0x0U, 0x0U, 0x80000000U, 0x80000000U,
  0x8000000000000000U, 0x0U, 0x8000000000000000U, 0x8000000080000000U,
  0x80000000U, 0x8000000080000000U, 0x8000000000000000U, 0x80000000U,
  0x80000000U, 0x8000000000000000U, 0x8000000000000000U, 0x80000000U,
  0x8000000000000000U, 0x8000000000000000U, 0x8000000000000000U, 0x8000000080000000U,
  0x0U, 0x0U, 0x0U, 0x8000000080000000U,
  0x8000000080000000U, 0x8000000080000000U, 0x8000000000000000U, 0x80000000U,
  0x80000000U, 0x8000000000000000U, 0x80000000U, 0x80000000U,
  0x8000000080000000U, 0x0U, 0x8000000080000000U, 0x8000000080000000U,
  0x0U, 0x0U, 0x0U, 0x0U,
  0x80000000U, 0x80000000U, 0x80000000U, 0x0U,
  0x80000000U, 0x8000000000000000U, 0x80000000U, 0x8000000000000000U,
  0x80000000U, 0x8000000080000000U, 0x8000000080000000U, 0x8000000080000000U,
  0x0U, 0x8000000000000000U, 0x80000000U, 0x8000000080000000U,
  0x0U, 0x0U, 0x8000000080000000U, 0x80000000U,
  0x8000000000000000U, 0x8000000080000000U, 0x0U, 0x80000000U,
  0x8000000080000000U, 0x80000000U, 0x8000000000000000U, 0x0U,
  0x80000000U, 0x80000000U, 0x0U, 0x80000000U,
  0x80000000U, 0x8000000080000000U, 0x8000000000000000U, 0x0U,
  0x80000000U, 0x80000000U, 0x8000000000000000U, 0x80000000U,
  0x8000000000000000U, 0x80000000U, 0x0U, 0x0U,
  0x0U, 0x8000000000000000U, 0x80000000U, 0x80000000U,
  0x80000000U, 0x8000000080000000U, 0x8000000000000000U, 0x8000000000000000U,
  0x0U, 0x0U, 0x80000000U, 0x8000000000000000U,
  0x0U, 0x8000000080000000U, 0x8000000000000000U, 0x80000000U,
  0x80000000U, 0x8000000080000000U, 0x80000000U, 0x0U,
  0x80000000U, 0x0U, 0x8000000000000000U, 0x80000000U,
  0x0U, 0x0U, 0x80000000U, 0x8000000000000000U,
  0x0U, 0x8000000000000000U, 0x8000000000000000U, 0x80000000U,
  0x8000000000000000U, 0x8000000080000000U, 0x8000000000000000U, 0x8000000080000000U,
  0x8000000000000000U, 0x8000000080000000U, 0x8000000080000000U, 0x8000000000000000U,
  0x8000000000000000U, 0x80000000U, 0x80000000U, 0x8000000000000000U,
  0x80000000U, 0x80000000U, 0x8000000080000000U, 0x8000000000000000U,
  0x80000000U, 0x80000000U, 0x0U, 0x0U,
  0x8000000000000000U, 0x8000000080000000U, 0x0U, 0x0U,
  0x8000000000000000U, 0x80000000U, 0x8000000000000000U, 0x80000000U,
  0x80000000U, 0x80000000U, 0x8000000080000000U, 0x8000000000000000U,
  0x8000000080000000U, 0x0U, 0x8000000080000000U, 0x8000000080000000U,
  0x8000000000000000U, 0x8000000080000000U, 0x80000000U, 0x0U,
  0x0U, 0x80000000U, 0x8000000000000000U, 0x0U,
  0x80000000U, 0x80000000U, 0x8000000080000000U, 0x8000000000000000U,
  0x8000000080000000U, 0x80000000U, 0x0U, 0x8000000000000000U,
  0x8000000000000000U, 0x8000000080000000U, 0x0U, 0x0U,
  0x0U, 0x0U, 0x8000000000000000U, 0x80000000U,
  0x80000000U, 0x0U, 0x8000000000000000U, 0x8000000000000000U,
  0x80000000U, 0x80000000U, 0x80000000U, 0x0U,
  0x8000000000000000U, 0x80000000U, 0x80000000U, 0x8000000000000000U,
  0x8000000000000000U, 0x80000000U, 0x8000000000000000U, 0x80000000U,
  0x80000000U, 0x80000000U, 0x8000000080000000U, 0x8000000000000000U,
  0x8000000080000000U, 0x80000000U, 0x0U, 0x0U,
  0x8000000000000000U, 0x0U, 0x80000000U, 0x0U,
  0x8000000000000000U, 0x80000000U, 0x8000000000000000U, 0x0U,
  0x80000000U, 0x80000000U, 0x80000000U, 0x8000000000000000U,
  0x80000000U, 0x8000000000000000U, 0x8000000000000000U, 0x8000000000000000U,
  0x8000000080000000U, 0x80000000U, 0x80000000U, 0x0U,
  0x8000000000000000U, 0x80000000U, 0x8000000000000000U, 0x8000000080000000U,
  0x80000000U, 0x0U, 0x80000000U, 0x8000000000000000U,
  0x80000000U, 0x0U, 0x80000000U, 0x80000000U,
  0x8000000000000000U, 0x0U, 0x80000000U, 0x8000000000000000U,
  0x8000000000000000U, 0x80000000U, 0x8000000000000000U, 0x80000000U,
  0x80000000U, 0x0U, 0x80000000U, 0x8000000080000000U,
  0x80000000U, 0x0U, 0x8000000080000000U, 0x8000000000000000U,
  0x8000000080000000U, 0x80000000U, 0x80000000U, 0x0U,
  0x8000000000000000U, 0x80000000U, 0x8000000000000000U, 0x8000000080000000U,
  0x8000000080000000U, 0x80000000U, 0x0U, 0x8000000080000000U,
  0x8000000080000000U, 0x8000000000000000U, 0x80000000U, 0x0U,
  0x8000000000000000U, 0x8000000080000000U, 0x0U, 0x0U,
  0x8000000000000000U, 0x80000000U, 0x8000000000000000U, 0x8000000000000000U,
  0x8000000000000000U, 0x8000000080000000U, 0x8000000000000000U, 0x0U,
  0x80000000U, 0x80000000U, 0x0U, 0x8000000080000000U,
  0x8000000000000000U, 0x0U, 0x8000000080000000U, 0x0U,
  0x8000000000000000U, 0x0U, 0x8000000080000000U, 0x0U,
  0x0U, 0x8000000000000000U, 0x80000000U, 0x0U,
  0x8000000080000000U, 0x0U, 0x8000000000000000U, 0x8000000080000000U,
  0x8000000080000000U, 0x0U, 0x8000000080000000U, 0x80000000U,
  0x80000000U, 0x8000000000000000U, 0x8000000080000000U, 0x8000000080000000U,
  0x8000000000000000U, 0x0U, 0x80000000U, 0x0U,
  0x8000000080000000U, 0x80000000U, 0x80000000U, 0x80000000U,
  0x0U, 0x0U, 0x0U, 0x8000000080000000U,
  0x80000000U, 0x8000000080000000U, 0x80000000U, 0x0U,
  0x8000000080000000U, 0x80000000U, 0x8000000000000000U, 0x8000000080000000U,
  0x0U, 0x80000000U, 0x8000000000000000U, 0x8000000080000000U,
  0x0U, 0x80000000U, 0x80000000U, 0x8000000000000000U,
  0x8000000000000000U, 0x80000000U, 0x80000000U, 0x80000000U,
  0x80000000U, 0x8000000000000000U, 0x0U, 0x8000000080000000U,
  0x8000000000000000U, 0x8000000000000000U, 0x8000000000000000U, 0x80000000U,
  0x8000000080000000U, 0x8000000000000000U, 0x0U, 0x8000000000000000U,
  0x0U, 0x0U, 0x0U, 0x0U,
  0x0U, 0x8000000080000000U, 0x8000000000000000U, 0x80000000U,
  0x80000000U, 0x8000000080000000U, 0x8000000000000000U, 0x80000000U,
  0x8000000080000000U, 0x8000000000000000U, 0x80000000U, 0x8000000080000000U,
  0x8000000080000000U, 0x8000000000000000U, 0x8000000080000000U, 0x8000000000000000U,
  0x8000000000000000U, 0x80000000U, 0x8000000080000000U, 0x8000000080000000U,
  0x8000000000000000U, 0x8000000080000000U, 0x8000000080000000U, 0x80000000U,
  0x0U, 0x0U, 0x0U, 0x8000000080000000U,
  0x8000000080000000U, 0x8000000000000000U, 0x80000000U, 0x8000000080000000U,
  0x8000000080000000U, 0x0U, 0x8000000000000000U, 0x8000000000000000U,
  0x80000000U, 0x80000000U, 0x0U, 0x0U,
  0x0U, 0x80000000U, 0x0U, 0x80000000U,
  0x8000000000000000U, 0x80000000U, 0x0U, 0x0U,
  0x0U, 0x80000000U, 0x0U, 0x0U,
  0x8000000080000000U, 0x0U, 0x80000000U, 0x8000000000000000U,
  0x0U, 0x8000000080000000U, 0x0U, 0x8000000000000000U,
  0x80000000U, 0x0U, 0x8000000000000000U, 0x8000000080000000U,
  0x8000000080000000U, 0x8000000000000000U, 0x8000000080000000U, 0x8000000000000000U,
  0x8000000080000000U, 0x0U, 0x0U, 0x8000000080000000U,
  0x0U, 0x80000000U, 0x80000000U, 0x8000000000000000U,
  0x8000000080000000U, 0x8000000000000000U, 0x8000000080000000U, 0x8000000080000000U,
  0x0U, 0x0U, 0x0U, 0x8000000080000000U,
  0x80000000U, 0x0U, 0x80000000U, 0x0U,
  0x80000000U, 0x0U, 0x0U, 0x8000000000000000U,
  0x8000000000000000U, 0x0U, 0x8000000000000000U, 0x8000000080000000U,
  0x0U, 0x80000000U, 0x80000000U, 0x8000000080000000U,
  0x0U, 0x80000000U, 0x80000000U, 0x8000000000000000U,
  0x8000000080000000U, 0x8000000080000000U, 0x0U, 0x8000000080000000U,
  0x8000000000000000U, 0x0U, 0x0U, 0x0U,
  0x0U, 0x8000000080000000U, 0x0U, 0x80000000U,
  0x0U, 0x0U, 0x80000000U, 0x8000000000000000U,
  0x8000000080000000U, 0x0U, 0x80000000U, 0x8000000000000000U,
  0x0U, 0x8000000000000000U, 0x80000000U, 0x8000000080000000U,
  0x8000000080000000U, 0x8000000000000000U, 0x0U, 0x80000000U,
  0x8000000000000000U, 0x0U, 0x80000000U, 0x80000000U,
  0x8000000080000000U, 0x0U, 0x8000000000000000U, 0x8000000080000000U,
  0x8000000080000000U, 0x80000000U, 0x0U, 0x8000000080000000U,
  0x8000000000000000U, 0x8000000000000000U, 0x8000000080000000U, 0x80000000U,
  0x8000000080000000U, 0x80000000U, 0x80000000U, 0x80000000U,
  0x8000000000000000U, 0x8000000080000000U, 0x80000000U, 0x8000000080000000U,
  0x8000000000000000U, 0x0U, 0x8000000080000000U, 0x0U,
  0x8000000080000000U, 0x0U, 0x8000000000000000U, 0x0U,
  0x0U, 0x80000000U, 0x80000000U, 0x8000000080000000U,
  0x80000000U, 0x8000000080000000U, 0x0U, 0x0U,
  0x80000000U, 0x80000000U, 0x80000000U, 0x80000000U,
  0x8000000000000000U, 0x8000000000000000U, 0x80000000U, 0x80000000U,
  0x0U, 0x80000000U, 0x0U, 0x8000000000000000U,
  0x80000000U, 0x80000000U, 0x8000000080000000U, 0x8000000000000000U,
  0x80000000U, 0x8000000080000000U, 0x8000000080000000U, 0x8000000000000000U,
  0x0U, 0x0U, 0x80000000U, 0x80000000U,
  0x8000000080000000U, 0x8000000080000000U, 0x8000000080000000U, 0x80000000U,
  0x0U, 0x8000000000000000U, 0x80000000U, 0x80000000U,
  0x8000000080000000U, 0x80000000U, 0x8000000080000000U, 0x8000000000000000U,
  0x3b20a5773d6fcffcU, 0xbcc79282bd228505U, 0xbd9fdb383e1a7f7cU, 0xbe136474bd7f1d34U,
  0xbe03b172bd360c9dU, 0xbd3cc6b8be2623e9U, 0xbe25ea223d38fdc1U, 0x3ceddc0dbe04da3eU,
  0xbd3b546d3d66c36dU, 0x3d1f39ae3d97c39fU, 0xbeac79db3e0c94c0U, 0xbceb1c1fbd92419dU,
  0x3db8ec493d26b543U, 0xbe6fcfb2be2a9080U, 0xbca6c395bd92b8bfU, 0x3c55c9cc3e11995dU,
  0xbde560273e1483bbU, 0xbe1b33b0bd664882U, 0xbcefd5b63e0e71feU, 0xbdee9764be4622c9U,
  0xbe372654be38874fU, 0xbdb3740fbd83b31bU, 0xbd78ae6b3e49811dU, 0xbcf226cdbd654d8eU,
  0xbe0194e2bd84b6faU, 0xbe38743b3a209b30U, 0xbd92bc5b3ccacd8eU, 0x3ba191723bda5cb8U,
  0x3d804cacbd7b7c26U, 0xbe1e25a8bd9aa0d4U, 0xbcadba983d8bc814U, 0x3d981f68bc534b12U,
  0xbe0b85d43e194528U, 0xbd78a295bdb9d2ecU, 0xbc67771b3d8e20d5U, 0x3dd424bfbe2bd0edU,
  0xbdabde3e3d24a16fU, 0xbd1496423c3c4edeU, 0x3d4730593e0e381dU, 0xbe23aafebd276793U,
  0xbd0803c33d58d10fU, 0xbd80ce2bbd3c2129U, 0x3d1cefb93ba7fc17U, 0x3df56209bcbc6f3cU,
  0x3d6db0c43dadc5dfU, 0xbdc3397d3d462d74U, 0x3cc924a23dc4dd2bU, 0xbc25058f3dc5169fU,
  0xbc6c23543ca9b2beU, 0xbe8db820bda168f5U, 0xbcdccc53bd92b962U, 0xbe3cb9babd0b3d9cU,
  0xbda83c39be0aa1a9U, 0xbe094d12be7f03daU, 0xbd886751be65a4e1U, 0xbe2108f7bdab49e8U,
  0xbe298c87be016386U, 0x3e02f33d3e14f962U, 0xbdfe8ee6bd217b1fU, 0xbde4d7743e0833b1U,
  0xbdac6847bda991a4U, 0xbd30d6b83c1478aeU, 0x3d78dbabbe482e56U, 0xbd822af33c20ac2cU,
  0xbdcc9aaebda83666U, 0xbd6579943cd7362eU, 0xbda21ecdbe2792cdU, 0xbdb5cb0f3d9b66c1U,
  0xbe51066bbe8d1b12U, 0xbdad41ffbe182d30U, 0xbdf8a173bb7f1fa2U, 0xbe94bb6c3caf8c4eU,
  0xbe218793be49075aU, 0xbd9e51f13e0ca20aU, 0x3e18df76bd8dd57bU, 0xbe336f3c3cd1072aU,
  0xbda689d7be90853fU, 0xbd6d1edebdbbe21fU, 0x3d5ea97bbe784357U, 0xbe07b26dbe08a3cfU,
  0x3c8e44e3bd194d58U, 0xbddfd23fbd6a43dfU, 0xbc928edbbde23c53U, 0xbd833233bdfb1777U,
  0xbe1c1362bd227b1cU, 0xbe118e5ebcb8a09dU, 0xbc655b483d97f74bU, 0xbe16c909bdca9cd8U,
  0xbc0b11a8bd09190cU, 0xbdff7b99bc529161U, 0x3e11b1e2bd1d0b0aU, 0xbd85a79abc7a1fc7U,
  0x3cbd71a3bcb59d2cU, 0x3d864e42bc8e486cU, 0xbde604303d4cf8a1U, 0xbd95beb83db72752U,
  0x3d104323bcf4760aU, 0xbe762f59bd66174bU, 0x3df28aff3d53a94eU, 0x3c2339eb3d2fa914U,
  0xbe08f4a33bbe3376U, 0x3d817ea9bdc9be77U, 0x3caf51a0bde2b4a2U, 0xbe002dafbd9bbf2cU,
  0xbd0be2b33da03463U, 0x3db22efcbd514125U, 0x3d1fb0f43d051d00U, 0x3d206d2d3bf53effU,
  0xbc39740b3d2fa860U, 0x3de9cf113df8e255U, 0x3e3293713e13b8c4U, 0xbe0b3a82bd2ef58bU,
  0x3d1e72e1bcfe1b4bU, 0xbddb9026bc8ea4bbU, 0x3e1562fbbcd32952U, 0x3e339a953e2cc99eU,
  0xbe58d9963d5528a5U, 0x3e1d4b54bd86dfd6U, 0x3e0236dfbdf4531eU, 0xbe3b5271bd3b03ccU,
  0xbd25ce683c33fa6cU, 0x3d8dbf2cbd0feba3U, 0x3dfd263dbd838b66U, 0xbd9f644abdf18a42U,
  0xbcbfb5bb3da20402U, 0xbc32a502bd6f5204U, 0x3d94a98ebca1b571U, 0xbcb6755bbe76add5U,
  0xbd3e16efbcb9389dU, 0xbd885a733df5d6efU, 0xbd09b392bd811c95U, 0xbc10c2d1ba81db40U,
  0xbd92aa0d3bf04fb2U, 0x3da2a33c3d2c68c7U, 0x3d2f2c533d043852U, 0xbdf4009abd52beb1U,
  0x3d59f7603cda65c4U, 0xbcdb44a23d847498U, 0x3dbb6478bd6e83baU, 0xbd5306dbbda8c589U,
  0x3d188eebbd4545adU, 0x3d9c10ffbda1b6fbU, 0xbc2507013d33a992U, 0x3c60a3c43ce96b77U,
  0x80000000U, 0x0U, 0x0U, 0x8000000000000000U,
  0x8000000000000000U, 0x8000000000000000U, 0x0U, 0x80000000U,
  0x0U, 0x80000000U, 0x0U, 0x8000000000000000U,
  0x8000000000000000U, 0x8000000000000000U, 0x0U, 0x8000000000000000U,
  0x0U, 0x0U, 0x0U, 0x8000000000000000U,
  0x8000000000000000U, 0x0U, 0x8000000080000000U, 0x80000000U,
  0x8000000080000000U, 0x0U, 0x8000000000000000U, 0x0U,
  0x0U, 0x8000000080000000U, 0x8000000000000000U, 0x80000000U,
  0x8000000000000000U, 0x80000000U, 0x0U, 0x0U,
  0x0U, 0x0U, 0x0U, 0x80000000U,
  0x80000000U, 0x8000000080000000U, 0x8000000080000000U, 0x8000000000000000U,
  0x0U, 0x8000000000000000U, 0x8000000000000000U, 0x8000000080000000U,
  0x80000000U, 0x0U, 0x8000000000000000U, 0x8000000000000000U,
  0x8000000000000000U, 0x8000000080000000U, 0x8000000000000000U, 0x8000000080000000U,
  0x8000000000000000U, 0x80000000U, 0x0U, 0x0U,
  0x8000000080000000U, 0x8000000080000000U, 0x0U, 0x8000000000000000U,
  0x8000000000000000U, 0x8000000080000000U, 0x80000000U, 0x0U,
  0x8000000000000000U, 0x80000000U, 0x8000000000000000U, 0x80000000U,
  0x8000000000000000U, 0x0U, 0x0U, 0x80000000U,
  0x8000000000000000U, 0x8000000080000000U, 0x8000000080000000U, 0x80000000U,
  0x8000000000000000U, 0x8000000000000000U, 0x8000000000000000U, 0x0U,
  0x80000000U, 0x0U, 0x80000000U, 0x80000000U,
  0x8000000000000000U, 0x8000000000000000U, 0x8000000000000000U, 0x0U,
  0x0U, 0x8000000000000000U, 0x8000000000000000U, 0x80000000U,
  0x8000000000000000U, 0x80000000U, 0x0U, 0x8000000000000000U,
  0x80000000U, 0x8000000000000000U, 0x8000000080000000U, 0x8000000080000000U,
  0x8000000000000000U, 0x8000000000000000U, 0x8000000080000000U, 0x80000000U,
  0x80000000U, 0x8000000000000000U, 0x8000000080000000U, 0x8000000000000000U,
  0x80000000U, 0x80000000U, 0x80000000U, 0x8000000000000000U,
  0x80000000U, 0x8000000000000000U, 0x80000000U, 0x8000000080000000U,
  0x80000000U, 0x8000000000000000U, 0x0U, 0x0U,
  0x80000000U, 0x8000000000000000U, 0x0U, 0x0U,
  0x8000000080000000U, 0x8000000080000000U, 0x8000000000000000U, 0x8000000000000000U,
  0x80000000U, 0x8000000080000000U, 0x0U, 0x8000000000000000U,
  0x8000000000000000U, 0x8000000080000000U, 0x0U, 0x0U,
  0x80000000U, 0x8000000080000000U, 0x80000000U, 0x80000000U,
  0xbdef494f3e567cfcU, 0xbd22a77fbd7b7c5fU, 0xbe1950783de142caU, 0x3dd5166d3d63fe23U,
  0xbe4be1c53d8dd729U, 0x3e48ad813bf9b5feU, 0xbd124ad5bd3d0216U, 0xbe55a04cbcab0958U,
  0xbe156dab3d712429U, 0xbe13484a3daeeef8U, 0xbe3cde983e0dfaa5U, 0x3d1e922a3e1cfedbU,
  0xbd0b403e3d88f966U, 0xbd91bcd3bdbccd24U, 0x3de48882bccf5257U, 0xbe0d44113e065650U,
  0x3d26ce86bc9841dcU, 0xbe2b945cba2eefa1U, 0x3dd4355f3df9f310U, 0xbe7fa352bddfc1c8U,
  0xbe23d301be498774U, 0x3cb304093c9bb2f9U, 0xbdcdfa8ebd4adaecU, 0xbd414088bc1bc57fU,
  0xbdbe1fd9bdfea44aU, 0xbe2252f93e17c140U, 0xbe4a03aabdfb1112U, 0x3d9198f93d9b2f2dU,
  0xbdc6372ebcef39f8U, 0xbdb5b3ffbe4fbc10U, 0x3d19186d3cce3959U, 0xbe5e39313d802ea1U,
  0xbc83a2d23dc6dae3U, 0xbe11bfbbbd343a3aU, 0x3db6352e3db094a8U, 0x3b014668bdf7dba8U,
  0xbdae93d33b9168c3U, 0xbe7188c33cd4fbc2U, 0x3dac153cbd77c452U, 0xbd9d77b43deeabeeU,
  0xbe25b300bedd9611U, 0xbc0f24153db0c622U, 0x3d265abfbdc921f5U, 0x3d004b3d3cd1a420U,
  0xbde0a9f3be5285adU, 0xbdfd7ee5be49567dU, 0x3c262259be01f4ecU, 0xbe8ac496be970b6aU,
  0xbd5a8d5d3e209177U, 0x3dc308f4bc5d2d49U, 0xbe1bfe2e3d371dddU, 0xbe02044b3d3fbfa5U,
  0x3d0ee21bbb92f83aU, 0xbeb9f2833e09be3cU, 0x3dbe1823bd9bcbccU, 0xbe5ae4e5bdcbdeecU,
  0xbc6a581b3d9c2d50U, 0x3e55343c3e01333cU, 0xbd58a3bdbd671fc2U, 0xbe3f7b38be743dbdU,
  0xbd410de1bce38bacU, 0xbe275025bdc09311U, 0xbe065fbdbe022ca2U, 0xbb47ad67bd36cc1dU,
  0xbdbf802ebdb3c525U, 0xbd6ae6c63d37a50dU, 0x3dcce7e9bcbdd181U, 0xbe8bf44abdb11601U,
  0xbd2a93a9bd3655d8U, 0xbdfc93ecbe834849U, 0xbdb1281b3da4419dU, 0xbded15adbdcf9c0fU,
  0xbdea74583d954034U, 0x3c43cda83c50bbe2U, 0xbd05f81dbdb2a285U, 0xbd8cdaf63db8b878U,
  0x3e0752843d159435U, 0xbd0717dd3e0c9a49U, 0xbc52f4613c57f6ddU, 0x3d02ff023c0d780fU,
  0x3d065fca3dab6463U, 0xbe4c61b43db7be60U, 0x3e03e974be4a3a11U, 0xbb72fa813cbd7160U,
  0xbe63f4043d179853U, 0x3e537b86be3dc0b8U, 0xbc072a903d84e2abU, 0xbda284683c8a1bd8U,
  0xbd0cf69b3d14916dU, 0xbd2ec578bd9bac05U, 0x3ddfb352bc992a68U, 0xbd88ebeebc624588U,
  0x3e059a7fbd259111U, 0x3c95a5f3bdbff517U, 0x3e830e693ac9d374U, 0x3d9378babde36f23U,
  0x3d8596843dac608bU, 0x3dd1b177be3b0fbeU, 0xbe5b519ebd889197U, 0x3da2a9b43e42ea62U,
  0xbd13864a3d2e5210U, 0xbcfecc533cfe573aU, 0xbd99aa5bbe47bba6U, 0xbe1142ecbd502470U,
  0x3c48460ebdb0ff1aU, 0x3d52aa84bdbb01ceU, 0xbe87047fbb3eddcdU, 0xbd0a26643db06adcU,
  0xbe283dee3e22d35eU, 0x3e3bb5533d8a3fc3U, 0xbde63d663b87a6bcU, 0xbe65437bbe58bec6U,
  0x3e2b06b13b1c6a1aU, 0xbe45dcf8bebf707fU, 0x3d8cc136be5c43b4U, 0x3e16b2973e272b5cU,
  0x3c68fe333d861f10U, 0xbc05c87abe805753U, 0x3e0334ed3d2867e0U, 0xbd8c9a56bdd23ed8U,
  0xbde4bd223db1d082U, 0x3e704590be02e058U, 0x3dcb6ac5bdef60f7U, 0xbe9e322bbe4e8e02U,
  0xbe256517bdbee21fU, 0x3e44d6c23e1ec6f0U, 0xbccae8b4bced6425U, 0xbd0623efbe50892dU,
  0xbc835e6bbd4c6244U, 0xbe82818fbd76b6cbU, 0x3d4fdace3d948e29U, 0x3de8a3563de68c52U,
  0xbdab2c703cad9f8fU, 0xbd78487a3b6d017aU, 0x3b8e0a483d6a3015U, 0xbe298757be216ec3U,
  0xbe1cf4553d692fe4U, 0xbd324473bdaf30b7U, 0x3e05d78b3d53a7b0U, 0xbe3304123d9ffb39U,
  0xbd9ebf693dd220adU, 0xbe0deb8d3c8ff655U, 0x3ddd4a7f3e0580f5U, 0x3d91dc373d349ba2U,
  0x8000009980000099U, 0x9900000099U, 0x9980000099U, 0x9880000099U,
  0x9980000099U, 0x9900000099U, 0x9900000099U, 0x9900000098U,
  0x8000009980000098U, 0x8000009880000099U, 0x9900000099U, 0x9900000099U,
  0x9800000099U, 0x8000009900000098U, 0x8000009980000099U, 0x8000009880000099U,
  0x8000009980000099U, 0x9800000099U, 0x9980000098U, 0x9980000099U,
  0x9880000098U, 0x9800000098U, 0x8000009980000098U, 0x9900000098U,
  0x8000009900000098U, 0x8000009900000099U, 0x9800000099U, 0x9900000099U,
  0x9880000098U, 0x8000009800000098U, 0x8000009800000098U, 0x9980000099U,
  0x9880000099U, 0x9900000099U, 0x9900000098U, 0x9980000098U,
  0x9880000098U, 0x9900000099U, 0x8000009980000099U, 0x8000009900000098U,
  0x8000009980000099U, 0x8000009980000099U, 0x9900000098U, 0x9900000099U,
  0x9800000099U, 0x8000009800000098U, 0x8000009880000099U, 0x9980000099U,
  0x8000009880000099U, 0x9900000098U, 0x9980000098U, 0x9980000099U,
  0x9980000099U, 0x9800000099U, 0x8000009980000098U, 0x9900000099U,
  0x8000009980000099U, 0x9980000099U, 0x9900000099U, 0x9900000098U,
  0x9980000099U, 0x8000009900000099U, 0x8000009980000099U, 0x8000009980000099U,
  0x8000009980000099U, 0x9900000098U, 0x8000009980000098U, 0x9880000099U,
  0x9980000098U, 0x9900000099U, 0x9980000099U, 0x9900000099U,
  0x8000009900000099U, 0x9980000099U, 0x9900000099U, 0x9800000098U,
  0x9880000099U, 0x8000009800000099U, 0x8000009900000099U, 0x8000009880000099U,
  0x8000009980000098U, 0x9800000098U, 0x9800000099U, 0x9880000098U,
  0x9980000099U, 0x9900000098U, 0x9880000099U, 0x9900000099U,
  0x8000009900000099U, 0x9980000098U, 0x9900000098U, 0x9900000099U,
  0x9800000099U, 0x8000009900000099U, 0x8000009980000099U, 0x9980000098U,
  0x8000009880000099U, 0x9900000099U, 0x9980000098U, 0x9880000099U,
  0x9980000099U, 0x9900000099U, 0x8000009980000099U, 0x9900000099U,
  0x8000009980000099U, 0x8000009880000099U, 0x8000009900000099U, 0x9900000099U,
  0x8000009980000098U, 0x8000009800000099U, 0x8000009980000099U, 0x8000009980000099U,
  0x9980000099U, 0x9980000099U, 0x9980000099U, 0x9880000099U,
  0x9980000099U, 0x9900000099U, 0x9980000098U, 0x9900000099U,
  0x8000009980000099U, 0x9980000099U, 0x8000009800000099U, 0x9800000099U,
  0x9880000099U, 0x8000009900000099U, 0x8000009980000099U, 0x8000009980000099U,
  0x8000009980000099U, 0x9900000099U, 0x9900000099U, 0x9980000099U,
  0x9980000099U, 0x9900000098U, 0x8000009980000099U, 0x9900000099U,
  0x8000009880000098U, 0x8000009980000099U, 0x9800000098U, 0x9980000099U,
  0x9980000099U, 0x8000009900000099U, 0x8000009980000098U, 0x9880000099U,
  0xbd230fe03d850659U, 0xbd0cabe53d99ec26U, 0x3df39cb1bd73ea38U, 0x3dd6ef13bcbda31eU,
  0x3d5ad3a73d09e5e7U, 0x3cbe79523d46aa51U, 0x3df1dbea3e0da3b7U, 0x3d935d533d541fa4U,
