/**
  ******************************************************************************
  * @file    small_net_int8_data_params.c
  * @author  AST Embedded Analytics Research Platform
  * @date    2026-03-17T22:42:29+0100
  * @brief   AI Tool Automatic Code Generator for Embedded NN computing
  ******************************************************************************
  * Copyright (c) 2026 STMicroelectronics.
  * All rights reserved.
  *
  * This software is licensed under terms that can be found in the LICENSE file
  * in the root directory of this software component.
  * If no LICENSE file comes with this software, it is provided AS-IS.
  ******************************************************************************
  */

#include "small_net_int8_data_params.h"


/**  Activations Section  ****************************************************/
ai_handle g_small_net_int8_activations_table[1 + 2] = {
  AI_HANDLE_PTR(AI_MAGIC_MARKER),
  AI_HANDLE_PTR(NULL),
  AI_HANDLE_PTR(AI_MAGIC_MARKER),
};




/**  Weights Section  ********************************************************/
AI_ALIGNED(32)
const ai_u64 s_small_net_int8_weights_array_u64[12497] = {
  0x7f9cc875bde35bb0U, 0xbbe065a2e647ccccU, 0xe8df57e6eb3de066U, 0x115b0eed1fdede50U,
  0xa6edbef4f6e52a32U, 0x142cff11fc089f81U, 0xf16cf515d33c6ef8U, 0x78ff5290ed0819c1U,
  0x2049980fcaf1dbcaU, 0x308135d9f5f2d25cU, 0xd0db09b7ecdd7f2aU, 0x261a5af79e761936U,
  0xa6f75ca84c00e830U, 0x58cced8700c82b09U, 0x496331e4dc224f58U, 0xefac196cce2d725U,
  0x437f5d13a6aacaf1U, 0xccded6180ddd131eU, 0x9bd6e557f9db0d4U, 0x27a39b002d1ad5faU,
  0x43baefa2ad43635U, 0x4a90fa31c1e0112cU, 0x81193ed0fd10d430U, 0xfffd06121905242eU,
  0xaeefb10f1339b46U, 0xeb0310ed1b816106U, 0xec24e924bf21ec25U, 0x18c8c63b49aff834U,
  0xc53772e83d67dfc5U, 0x8fda01406811c50U, 0x2c401b04fbd408d6U, 0x1d16d6df29383e1dU,
  0x1aa5ed25141a0bf4U, 0x6abac58adedc81eaU, 0xa0359c46e3b72ff0U, 0xf2833f110828d97eU,
  0xbd5c2c11eefb6c81U, 0x45d4b9b9eb9be9f3U, 0x2f3bf0b9819d2826U, 0x7668f60323093a18U,
  0xe028c324e1f1f55bU, 0x1c8169cf75bbfd10U, 0xa233d453cd1cf3ffU, 0xe0d252d40ef50b22U,
  0x41dd721df061ffdU, 0xef0eff816509ca23U, 0xf016cc2420ecf7fcU, 0xbb8d40c2acb0e07U,
  0xd07fe204f21fe503U, 0x3cf32cff04b45546U, 0x1c330525c2190c99U, 0x593424332bacaeb1U,
  0x1f483e5d82818a4cU, 0x110e40bcb88c2f2eU, 0xfffff9e100001bdfU, 0xffffdf9cffffff0fU,
  0xfffffd70fffffefaU, 0x1ec00002b47U, 0x4b9fffff65eU, 0xfffffd48fffffd70U,
  0xfffff121fffffd95U, 0xfffffd46fffffc5cU, 0xd82be82614eee329U, 0xd1321bf404d7ebf6U,
  0x94ffc7bd01c9391eU, 0xb8e43a81bebde607U, 0x4ae3e5a8bdf5d0e7U, 0x8fef281051af617U,
  0x77eaf831e40dc8b7U, 0x2901c20415fd0cedU, 0x28f94b3b56f01b28U, 0x1d53dd65330fd7dbU,
  0x9e0ed0defef0c6f1U, 0x10a348f2aee8e821U, 0xaff801f9edf0070cU, 0xfdcb11fae50afe12U,
  0x62d8f717032de995U, 0x102f9f000b0ee8b4U, 0xe52bd3fcf3fa1458U, 0xf8ff25ba18eb1c1bU,
  0x2cbe38f4ef06e7c2U, 0x90dd9f20cfd2ec9U, 0xfc8113133bff2adeU, 0xd75dbfec02f1ded1U,
  0x37f5f131431dedf0U, 0x3019c7072326f223U, 0xee4132effbedf805U, 0xf2e233cfd01217faU,
  0x14f0f205e6d9e1ebU, 0xdaa7e0efdab326baU, 0xf426ed161efde437U, 0xba3b1002f9d8f9fbU,
  0xe52125ee1912fa29U, 0x7f11e1aed080122U, 0xed4d0e00c62bf61bU, 0x38e92a0f0d401ed3U,
  0xd90ff5fbb001c0feU, 0x15c143ebf0d114f0U, 0x9ca1bfa06b008f2U, 0x112a229af7c817eaU,
  0x232e14e8edd61403U, 0x1323e1f7f6e31af2U, 0xc27936f0ee29e743U, 0x16ae10230cfc00cfU,
  0x25c7ff09fd8130a6U, 0x14dd2ebbe2f5e4a0U, 0xd2e00f0711d9130cU, 0x6ece0f704cd0f24U,
  0xf83d2a0f1f06ed38U, 0x5f1f4fefd15dbeaU, 0x1396e30022b72bbfU, 0x966711c0fe993fecU,
  0x6d8d02afcd9fbd1U, 0xc500ccbc08c0e5faU, 0xf72ae92ced25ff30U, 0xabff61f18ed0b0dU,
  0xeffdd9030af8eadbU, 0xfd0a0ff0f20f031bU, 0xdf2bfce4e00a1728U, 0xfcea30f109fd230aU,
  0x9b223efbe1dc0901U, 0xf4c728bc0ad915f5U, 0xdccbce0132ecf244U, 0xcc300d0900f916f0U,
  0xb9dd3e403e9423eU, 0xc835e229d9fc1103U, 0x13fc1dd8fb412311U, 0x11fede51fbd2fe02U,
  0x37f8d54016f0368fU, 0xd1fd0ccef4c4f2eeU, 0x97f020dfaf154e5U, 0xdcfbebc4f2f3deddU,
  0x5c0d21df01e11eeaU, 0x17f9ecf6e639f71eU, 0xef08e4fae0f50412U, 0xeff16ccf301ed14U,
  0x7ffb180f1c00f3cdU, 0x32cb82cfb02f4e1U, 0xc11201f302070c1bU, 0xf7cf22e8f9f40306U,
  0xb605eaf0f5070b2bU, 0xf9e5120600ec0514U, 0x38f11af2fbdcdcb4U, 0x171de2e1ed18ece6U,
  0xddfa0cfa0301072bU, 0xdf2f60a04da11ffU, 0xe006f40d15fb0614U, 0xf8f11de612ec0cfaU,
  0xf7020207fb0ee8eeU, 0xfe16f20a030eec09U, 0x4f508fb020606eeU, 0xdf1fe0ef8f818ddU,
  0xf9151d1b3fe5f41bU, 0x241a150d21fff5fcU, 0xea0e1907180b060fU, 0x1ce7e40fdf1724f9U,
  0xdfb172a240af30aU, 0x2703f7f7ff110ef3U, 0x2da0a0a18e400fbU, 0xf02dece5ebeec9f5U,
  0xeef0e6ecdec7dedeU, 0x9bcfecc81cb1e07U, 0xfefefbf8f3e5e9ffU, 0xea00f10aceebece7U,
  0x28f4fceff414eddeU, 0x407f1f6c70308e2U, 0xe8e6f1f6d9ee14e9U, 0x3fa11df10da24e0U,
  0x1120e904d20be707U, 0xfd0611152dd5fff0U, 0x404e62a2113f215U, 0x11f3fdca2900e213U,
  0x2f0adf2c340e1015U, 0x2f104fbf8a526e4U, 0xd810e119f4f4e404U, 0xef17f010f4c0fdd4U,
  0xefee05e4cbb6c4dbU, 0xde15e8bfe8dfe0f7U, 0xd9ef370ef8f51516U, 0xd5044dac167f9218U,
  0x33ee37fe01f426f2U, 0xdbf2d9e42ea63f01U, 0x5060dc3f2100e29U, 0xbd7011de4224bfbU,
  0xe01f05a9f4bbd4ddU, 0xf8dcf62e9f9f0ecfU, 0x8dc1ddf0ff609cbU, 0x2239d5fdc74fd403U,
  0x11c3ddbd0fbc0bd2U, 0xb205e4d5d2b81f00U, 0x9dc07c606d7d5f2U, 0xa81907fbddf40007U,
  0x71e05f71d231537U, 0x1d12f220161ce307U, 0x523f41d09e61b0bU, 0xf21b110c0b0708e6U,
  0xe3ebbdb7d4bae3deU, 0x81c5049faccef90aU, 0xfce3e8dd08ea1dfdU, 0x900a08ebcee4010cU,
  0x60c200bf91bf2feU, 0x2603fb061c241af1U, 0x91d0713000efc05U, 0x30fdf80b131ffaeeU,
  0xf31106e9fdef0808U, 0xf9ea09e9d3e7fefdU, 0xb935f3df57120016U, 0xf70513192af2c20aU,
  0xb13ed1cb5cdf005dU, 0xfc390397322c080cU, 0xd0b04ebf7e2f0eaU, 0xecede6f4de1811cfU,
  0x1897f71611a8f4d9U, 0xcffc8f981aafccfU, 0x45ad2005baea0cc7U, 0xf3c2ab4685aa11dfU,
  0x1af636fce901ee09U, 0x1d05132cde00ea11U, 0x22d80315bc2034bbU, 0xeadc02d8341428ceU,
  0xe615eb31f70b080aU, 0xfd2f20d439f40b0aU, 0xee14effee316b3fbU, 0xbec14ee18e1eafcU,
  0xeffae1cdf920ecefU, 0x21ebfd0edcedfcf8U, 0xefe2e1ef1602cfeeU, 0xf0eb00f902f10bfdU,
  0xf4c3f22016fa17e4U, 0xd9fe03ebe6c2fffdU, 0x511e010f02e30e14U, 0xe727eaecf82d03e0U,
  0x7f0dfb113b1c04cbU, 0xd927f951fa0600dfU, 0x3124fdf4fb05f700U, 0xd9040d271ffafb0fU,
  0xac1d0503f502001cU, 0x22dd250815e607feU, 0xa2f32007c0de082fU, 0x150a13c016fe0d03U,
  0xba160c09cfefff1bU, 0xfcf700aeef170607U, 0x27e707160c120db3U, 0x817041812e3ddf4U,
  0xb2d4d5cfd5d8e9d9U, 0xf19f4397c5de0311U, 0xefcef0c3a80ab4e7U, 0x12813daee8e2eefcU,
  0xf851061318141846U, 0xf117f6f302ef29ffU, 0xc85d0deed90d0125U, 0x70e490f2eea0607U,
  0xc17716e9f4f0f315U, 0xdbb75aeae0d3de15U, 0x3e99102155d118e6U, 0xf734c51dfd1a14f9U,
  0x27c5010dfed719d1U, 0x2329aed000ceb0fU, 0x25d129fe42f50f43U, 0x1c3bad2a150e36faU,
  0xf2e9fbed14f602fbU, 0xfa0906effe0e11f8U, 0xf6f8ea10fdfff10dU, 0xe71af9ecfbd3fa09U,
  0x814fb3808f60318U, 0xfe1207ec1c110bffU, 0x23cfc4a405f9c2e7U, 0xea1507d80aec12faU,
  0x11f2c8b7e812ca01U, 0xd09fbf8eff1e730U, 0x13031616fe1ddcf4U, 0x1710e12c120805f1U,
  0xf008a08dfbdf8102U, 0xead817e1e8f0e2e5U, 0xe12cccaaed04a002U, 0x8d91e0fecf5c0fbU,
  0xcf828ee1f0bc3f9U, 0x11f6eb0efe230a0aU, 0xadb00fdf0f40ce9U, 0xecdb230809cee6e5U,
  0xa244fc3710100043U, 0xe42928edfefaff05U, 0x67eb081013ece5e7U, 0xf211d01de91203f5U,
  0xd70a08f30011f914U, 0xfbf0f1ef3eef315U, 0x472fdd26e4c9d3e8U, 0x2c4fe1c41520d403U,
  0xf3c4e9e60b2781d4U, 0x1dcafa3e14dee4f5U, 0xe921f30918f2fd1eU, 0x3fc0ac6f90d14feU,
  0x46a1e517f21ad9b7U, 0x728d1142af0dffcU, 0xb036eccd00f2cd40U, 0x4d920d9fef60d00U,
  0xf8fc0f27c60ddb2cU, 0xeb0f3ee313ecbef7U, 0x8110ffcd970c13e2U, 0xd1af64cd0aed1b10U,
  0xf4481fde8af53f26U, 0xf7f043a4030115f6U, 0xfa46f7203fede3f5U, 0x2309dd2724f71904U,
  0xf13cfc1436bb1165U, 0x2020eae20be1fa1aU, 0xe6fb34f757162035U, 0x100ec2eef90f20e2U,
  0x24a7001c38d4fbc2U, 0xfaf2ccddc3ed04d8U, 0x4890f02b111613a9U, 0x216a4fbedfde9e4U,
  0x2ad4002311e3f0a7U, 0x800cc2ae8e7f2eaU, 0xe6e4f511e411e8faU, 0x5ff21fbf80ae4e2U,
  0x53280e14122306fbU, 0x2d15c6111e300323U, 0x2ee0c00020febd8U, 0x26fe0d1dee07edcdU,
  0xedf6f61410fa0e08U, 0xf6030912fb0e0ff1U, 0x55220deb00f30d05U, 0xf236f3281f1120f1U,
  0xff25020af3000a1eU, 0xf406f4fe2afd1b02U, 0xb4f7ddedfdbb1bfcU, 0xcac0f7a0cdc7d504U,
  0x3f6fbe209e22206U, 0xd7fa59cad6d1ff2fU, 0x81f9cce7f2e81a14U, 0xe3d906d5cea8cf09U,
  0x8145d120f4d5c4fdU, 0xeda628d80bdbe9d2U, 0xba25ea34fcfef043U, 0xcb132ab117dd3bfeU,
  0xea17003afbe01ff2U, 0xab2510d4fed230d7U, 0xfc33f159fef7d228U, 0x1ceaffda07f81832U,
  0x31f9100528271c00U, 0xc2bf50f251a0a10U, 0x90f32df0d330c30U, 0x200ee33e1d3a0931U,
  0x20c4e7fbf123b9d0U, 0x242dcfdfed29ebddU, 0x13a3f3bd071397e2U, 0x13e60335ef03f114U,
  0x48b1f8bafbc8ceb5U, 0x1717e9dfcdffddd5U, 0x3801edee20e4002fU, 0xe34dc1011312411U,
  0x28dea9e5f4ceeecfU, 0x991dfce8ebd2fd08U, 0xffdee6f3e2e81704U, 0x81e112b5a9bbfaecU,
  0x12ebdbc9fae800d1U, 0xc6e913ecfae8f10cU, 0xbb04e10adcf4f7edU, 0x84df11a1d8a3c9e5U,
  0xe13419fb2aff173fU, 0xf532f7011906100fU, 0xda15dce209effc01U, 0xfade2addf9b70d09U,
  0x1902010ffffe0721U, 0x451cf4211129f705U, 0xbf70e140e25f9e1U, 0x31dce92d0f2208ebU,
  0xec21a12a7fc9b3f6U, 0xc420c9d92debeedaU, 0x1ef2c0182005fc07U, 0xdff3e0e2c608fe3eU,
  0x17eff5f8c10f21e8U, 0x15d32503910010d0U, 0x2f4bd3cee11be15U, 0x6dbeed8e303e313U,
  0x8e9e90feb07231cU, 0x62203f304f60bf8U, 0xfc0bf0bb0a22feU, 0xf7f908f40be535f0U,
  0xee141c191420e6fcU, 0x5ecf6f3fb2ed7eeU, 0xf00c05d7010715e4U, 0x612f3fadefc0bf9U,
  0xeb18e1e501170aU, 0xfb1d11fdeee9dc13U, 0x30e90eeffcf3ccebU, 0x513d31609fdd3d1U,
  0xe736e8ebf421e4f7U, 0x1ebe3afef006ea03U, 0x5e7dffcdeed000aU, 0xf50e170cf9d6e4f4U,
  0x20c534f4edfdcfd1U, 0x2405e105eb1bfdbdU, 0xc20cff1b0fdf217fU, 0xfae203cd16d91608U,
  0x1dff120af206fed0U, 0x2013f6fd0a17f201U, 0xe221fc0e1fdcf1e2U, 0xdd11fbe7ef0408eaU,
  0x14bf130c2afb1abdU, 0xeb1bd505ed0b0debU, 0xde24f902f70bee28U, 0xf3e809fc020ae5faU,
  0xa825f212ae1dfe4fU, 0xf4ec6a23f5f5e1ccU, 0xcb63e4e3adee01b6U, 0x24c925cd0540ce11U,
  0x2e0013ff01fab503U, 0x15f7de17ffe4b5d8U, 0x62c125096598fccbU, 0xf954a6ccfed8f6daU,
  0xb4b4360256b4307fU, 0xe31df5c40faa0dfbU, 0xafa11180c32d404U, 0x704f1082809c702U,
  0xf43c1b05f6fbd61cU, 0x9d7280f0727e70dU, 0x3bd128fdffe2378aU, 0xf10badf2cf0223b5U,
  0x2d1f307d8d91dc9U, 0xedf9c8f6dee319f4U, 0x1ee40a1d481df006U, 0xf63fd33818171c15U,
  0xd52c24da04041b50U, 0xfdc833e4d5031adcU, 0x23f3d7e8c2d6eeceU, 0xe4ed3281e8e4d32aU,
  0x14c9fe0621d5f0c2U, 0xec36ccf41108fadeU, 0x111054f139130640U, 0x101fff7e21a1ff2U,
  0x9230fbcfcadfd9e2U, 0xfd838bee1cdebf8U, 0x15f4f8fadfcff4b6U, 0x2f6fdd81bf90df6U,
  0x11b132f8f3f8e6efU, 0xdfec716f2510be3U, 0xee3e3ee5ff1be830U, 0x2ac71721ce2ae0d5U,
  0xe82ede0d63f21132U, 0xe6ea12f314f1dafcU, 0x1f81e83d1fd5f5c7U, 0xf846dbc9e2d323e2U,
  0xd52d09d9aa17ef1eU, 0x19cb1a3516e8ef0fU, 0x1dc9d1543dd4cfd8U, 0xf044cc9113e444ccU,
  0x43ff32ac03122c9U, 0xecc0214e0dc9b2ecU, 0xbe40c418fcd3e93aU, 0xd715269c10f8022cU,
  0x33de17078e1de6a9U, 0xfbef93adb0be3e3U, 0xb920e4f917e3f851U, 0xf03622ce2918e90fU,
  0x48b5cd2f3e09ffeeU, 0xef1fc2f505162fddU, 0x16fe1101e40cfc05U, 0x34e10e220d2216ceU,
  0x1e30ffeaf3d3ead3U, 0x44fbfce7d9f4b207U, 0x408206fe07f481b3U, 0x4e05d7f40e17ce01U,
  0xf3172c00e9e50921U, 0xe3f732fbfb3818daU, 0xf72343190801fa23U, 0xdc11fce104f8ce03U,
  0x7b0ee0f2df1a817U, 0xd32ffaebe8deecffU, 0xb42e2bf905220e38U, 0x8d2100df301fd0eU,
  0xe01e0007e51c04d8U, 0xefaeca209ed08fbU, 0xf0f5b2ec0baee6e2U, 0xb900e882df99e907U,
  0xc209efb3c4f911f3U, 0xe7b56cec03cde007U, 0x2f3f0c270b13ce11U, 0x250f0ceefb1ae80dU,
  0xebe0dc0c10ed192cU, 0xf235d6f2deb933f4U, 0x9e28edeeb306ed14U, 0x249030d2d7fb00fdU,
  0x8f5b61c5031a43fU, 0xec4ac4816af8c83cU, 0x4aadf50a32dd5fafU, 0xf117b0e2f8fb43abU,
  0x8871fff9b817df37U, 0xbf268e31e1605ffU, 0x68953406f601d0cfU, 0x22b7e50e034601f1U,
  0xedb628421de3408aU, 0xf133d2ded4ddf6c3U, 0xc603c7eec8f1cd3fU, 0xffef55b10ee5bf11U,
  0x350a09f1f1cd15afU, 0x130bead5e31736e6U, 0x1fb27bec7ffc05f8U, 0xe654823ecb151ebaU,
  0xf1fad9ff00e903f0U, 0xe6e82bdff3e706e9U, 0xd144de07d01e0d3bU, 0xf00e3ef92debc258U,
  0x301f1af2f8f0fedfU, 0x18f9c4fe082235ceU, 0x14f7fb09f905f5U, 0xfdde16f9021043f6U,
  0xecdb2013f40b2eU, 0xf50702ec19d8d210U, 0xecdcdf1beb12f1deU, 0xaecca102efdeefeU,
  0x29ff10e74101d6d8U, 0xfe2be60a1e31be09U, 0xf5eff6f90f02f3faU, 0xbf4fde8e8faf5fcU,
  0xf816f518d616071dU, 0x12060afb0ee60bf1U, 0xf7f2cbd433fe81e5U, 0xeb27e7fcfa26f1fbU,
  0x8c7efeb06f3cc06U, 0xecf9fef61aef17e4U, 0x17ff0520e3e12612U, 0xef13100223d201ecU,
  0x17c9e6e5050dcdd1U, 0xf9dbe9daacde1400U, 0xd21fd0cdc00f8f4U, 0x5d3f50c29d2f0efU,
  0xac4f0124e0111236U, 0xeee30f0215f808faU, 0xda2a2a2ae608e715U, 0x1afb0b0e1016e0fcU,
  0xf161813050504fdU, 0xfa19f2eaed2e0815U, 0xf8e202f7e70410eaU, 0x8fe02e6e3ee0d02U,
  0xfc00fb05f216f227U, 0x121508f9270f040eU, 0x1f1e3b419f7f209U, 0x9505041b19c60afdU,
  0xf4fecdae0dfe1718U, 0xbaed11180fef0e0eU, 0x1718d004f6f0160dU, 0xfc17ddc4fdfb41fcU,
  0xdffd8ee1fe405f1U, 0x86f1edcfd4d0fd1fU, 0x15dce7cd18f102c7U, 0x810202db9ce3f6f4U,
  0x45d90c290f0911e8U, 0xf922d5fddf10f8fbU, 0x1cf40e0105f11f08U, 0xfc12db0d170de2ffU,
  0x12bf09c5e7e1f4b4U, 0xce703e9d90cfdfeU, 0xf20cea0f11eb1326U, 0xfe5430112dcdcf27U,
  0xedeffaf3f2d1ec01U, 0xd6d602cacfd8e90aU, 0x90e1106d7110910U, 0x2d40f06000a0b12U,
  0xd61cf8f410fafddfU, 0xec8117d4e6cbfd05U, 0xaf07fc16e61302eaU, 0x8c5e5c81bf7e6f2U,
  0xd53bf91c3216074bU, 0xf73e1dc513f62b1aU, 0x7dfd234f10e7fdf3U, 0x12578119061af0ddU,
  0xee10005b03d8ccU, 0x8fae91fe0f3e7ebU, 0xd8f3dad7baeb0e41U, 0xf8c059b9cfdd082cU,
  0x38c7fb43e41fd6bbU, 0x547ad142aeedfd2U, 0xbe2dd8db12fde610U, 0x8c720c2fef50cfeU,
  0xd2fde2cecbe13b24U, 0xe8e244c8f4d70e0cU, 0x1f7180ff513e0cdU, 0xd13d3261d28f8e1U,
  0xe7210fea1af5092bU, 0xfbdf1bd4e7022dfbU, 0xf51501d604fe2709U, 0x5061deae6f3010aU,
  0x1710fae8ead3ff05U, 0x3cdefd0bd3d212d1U, 0x11ebf4f3ddeac2d3U, 0x6cbaf7e7add4edc4U,
  0x1afa051f10fcf203U, 0x44f1fe15c7f121caU, 0x180a3605013514edU, 0xb0911f214231ccfU,
  0xf20e36f9ecfd0fU, 0xeae418cdf4f92ee6U, 0xeff2ff1720d9fe10U, 0xdf36faf61cf1e609U,
  0x5d6f3d04ee10bedU, 0xaf2fe212f0f09fdeU, 0xb225be91d7e4072aU, 0x81fb13cc02fcb820U,
  0x919ccdd0002e0e3U, 0x9f1fe80228fdfaecU, 0x22c6dcdcece8f7c2U, 0x15d81ef21efcfe2bU,
  0x82efd6f7d8e81b32U, 0xe9f43d81d385dc00U, 0xfd420df00de9062bU, 0xea26f3de0806fb03U,
  0xa1e3dfebe0fef4c6U, 0xf0bc4ec9d9a2dafbU, 0x85a221612f11566U, 0xa3d19ea0e150d0dU,
  0x7cf517fe1609e2b9U, 0x30fe8a33dd2ff9e2U, 0xd93318000afa1037U, 0xfdf434e60b010df9U,
  0x66cd271a2015fde7U, 0x928a210042c03efU, 0xc2c0f815f5ece5c0U, 0xebd6e0f414dbf3daU,
  0x2dbf1e16188f241eU, 0xea18cd00df0d58d4U, 0x2fc92ffbf9de07daU, 0x5b22ae52ae612U,
  0xd8eff0be141eac00U, 0x15aa3e00e20eb90cU, 0xf9c121e72fdc33a7U, 0xfc7f17fbf504caf4U,
  0x41f0f4170305cae0U, 0x1b21b7f820f3c141U, 0xe815d4fa04fcb72cU, 0x20eb330c2bf505efU,
  0xea3cfe0ce10af136U, 0x5b0e606ddf017e9U, 0x141e629cd23d2fdU, 0x13fdf1132e02f0f2U,
  0xd13ff609e618c613U, 0x15cf560705fe08f6U, 0xbc000004aaU, 0xfffff1040000037fU,
  0x5f3fffffee1U, 0xb6600000cd1U, 0xfffff96300000774U, 0x7e7fffffb58U,
  0x38200000049U, 0xffffebf6fffff99aU, 0xffffffa400000891U, 0x2940000074fU,
  0xb42fffff855U, 0xfffffbca00001102U, 0x4dcfffffffaU, 0x1046ffffff82U,
  0x9c2ffffffc0U, 0xfffff37c00000543U, 0x0U, 0x0U,
  0x0U, 0x0U, 0x0U, 0x0U,
  0x0U, 0x0U, 0x0U, 0x0U,
  0x0U, 0x0U, 0x0U, 0x0U,
  0x0U, 0x0U, 0x0U, 0x0U,
  0x0U, 0x0U, 0x0U, 0x0U,
  0x0U, 0x0U, 0x0U, 0x0U,
  0x0U, 0x0U, 0x0U, 0x0U,
  0x0U, 0x0U, 0x0U, 0x0U,
  0x0U, 0x0U, 0x0U, 0x0U,
  0x0U, 0x0U, 0x0U, 0x0U,
  0x0U, 0x0U, 0x0U, 0x0U,
  0x0U, 0x0U, 0x0U, 0x0U,
  0x0U, 0x0U, 0x0U, 0x0U,
  0x0U, 0x0U, 0x0U, 0x0U,
  0x0U, 0x0U, 0x0U, 0x0U,
  0x0U, 0x0U, 0x0U, 0x0U,
  0x0U, 0x0U, 0x0U, 0x0U,
  0x0U, 0x0U, 0x0U, 0x0U,
  0x0U, 0x0U, 0x0U, 0x0U,
  0x0U, 0x0U, 0x0U, 0x0U,
  0x0U, 0x0U, 0x0U, 0x0U,
  0x0U, 0x0U, 0x0U, 0x0U,
  0x0U, 0x0U, 0x0U, 0x0U,
  0x0U, 0x0U, 0x0U, 0x0U,
  0x0U, 0x0U, 0x0U, 0x0U,
  0x0U, 0x0U, 0x0U, 0x0U,
  0x0U, 0x0U, 0xa3bf661eadbf14dU, 0xd695e64af4aa06b9U,
  0xbdc7e5d0cf11bf30U, 0xe129e322b3b40024U, 0xf0f82f0416f3e6U, 0xf60115f9f607e0cdU,
  0xf20affbcf019e50eU, 0xda21f418ecec0c25U, 0xfde300260adf0930U, 0xd5e61f42141a14dcU,
  0xe3f237d51344fad3U, 0xaeadffcde06ed54U, 0xfc2e157fedc7d508U, 0x91bef634facefedaU,
  0xb7d5b2e9451bc4e4U, 0xcef60c2ec4d3f304U, 0xece3ea23fe28f2e9U, 0xef1501c2f1fdcbddU,
  0x102bdbc4ee14d5f6U, 0xe5cb110204140bf9U, 0x5e10c1ce706fdd1U, 0xdbf00af600cc0fdcU,
  0xfcf21ed20a4fe6ddU, 0xdce2fbcd0731dd1eU, 0xf83bf16dfac91a1aU, 0xb6fce223dae6efe2U,
  0xf8f4d5fd5725b0edU, 0x7e8160808e8d734U, 0x5d7145deff90237U, 0xea3c0c0aff30d710U,
  0xc41e06e1ef1ea907U, 0xb8fb23231904ddU, 0x28101f2800be1a01U, 0xdb44f60f23a4f8c9U,
  0xf0f826c2adfbcff0U, 0xbbe52cc42333cf28U, 0x0U, 0x0U,
  0x0U, 0x0U, 0x0U, 0x0U,
  0x0U, 0x0U, 0x0U, 0x0U,
  0x0U, 0x0U, 0x0U, 0x0U,
  0x0U, 0x0U, 0x0U, 0x0U,
  0x0U, 0x0U, 0x0U, 0x0U,
  0x0U, 0x0U, 0x0U, 0x0U,
  0x0U, 0x0U, 0x0U, 0x0U,
  0x0U, 0x0U, 0x0U, 0x0U,
  0x0U, 0x0U, 0x0U, 0x0U,
  0x0U, 0x0U, 0x0U, 0x0U,
  0x0U, 0x0U, 0x0U, 0x0U,
  0x0U, 0x0U, 0x0U, 0x0U,
  0x0U, 0x0U, 0x0U, 0x0U,
  0x0U, 0x0U, 0x0U, 0x0U,
  0x0U, 0x0U, 0x0U, 0x0U,
  0x0U, 0x0U, 0x0U, 0x0U,
  0x0U, 0x0U, 0x0U, 0x0U,
  0x0U, 0x0U, 0xd01de4f0beb9dc2aU, 0x1ea295a14bbc9e8U,
  0xfce2161aa3db1749U, 0xe49351deef60c1cU, 0x35e713d7dae4b268U, 0xeff0fb1ac2b991f1U,
  0xd6d9412dedcfdf44U, 0xe6a21ec04c114beU, 0xf214ec9c0f2eb5baU, 0xc8ffa19b24ece82aU,
  0xf31e03f6eecefb04U, 0xd9e826b606401794U, 0xc5f2d00c2ecbfc81U, 0x96c194ea1597e0f0U,
  0xdc0eac26c4d4badaU, 0xfea1ef8feed120aU, 0xf3dec0260bc5c33cU, 0xdab725262702b311U,
  0xdde7f2e9d04fe7a3U, 0xc1ff0664acdc1026U, 0x2a1a05e7e7e101c9U, 0x1201fddde51e2f25U,
  0xbf11f9fa4a290b18U, 0xbdfff50d0bfdf3f6U, 0xe05fbfcfd26d9eaU, 0x3c9c7e7e9dff005U,
  0x2e3316cb33c8fd17U, 0xdd0f0edc3104091bU, 0xd1ff26f6d71228f2U, 0xaeb8f0eeca18c2feU,
  0x1cea09fbb53a03b5U, 0xebc3e89fcccef812U, 0xf7213acdcd3535ebU, 0xbf044c6ac0ffb14U,
  0xced018db3dffddebU, 0x42dcd5d7ddaac0bbU, 0x0U, 0x0U,
  0x0U, 0x0U, 0x0U, 0x7f000000U,
  0x5000000000000U, 0x0U, 0x0U, 0x0U,
  0x0U, 0x0U, 0x0U, 0x0U,
  0x0U, 0x0U, 0x0U, 0x61000000U,
  0x2000000000000U, 0x0U, 0x0U, 0x0U,
  0x0U, 0xf600000000000000U, 0x0U, 0x0U,
  0x0U, 0x0U, 0x100U, 0x3d000000U,
  0x2000000000000U, 0x0U, 0x300U, 0x200U,
  0x0U, 0xd200000000000000U, 0x19ece0cc16f2d80eU, 0xf08d42e0feffa07U,
  0x4ebf9cacef7091bU, 0x11228ff12fd13b1U, 0xcaf1f381b5eaf2beU, 0xeb3262205c8f3e9U,
  0x32fc2e9f03021c2bU, 0xff28dbecf52200d9U, 0xba201dddf80fecd9U, 0xd6af0000d6f6f61fU,
  0xce4390b4fce28e9U, 0xc7001ceeeb03ea30U, 0x12e8fd221af7e814U, 0xdb02ef0a230806edU,
  0xf810df08cf1aedeeU, 0xf8070dfb06f0fc06U, 0xd908000ce5f50bf6U, 0xf2fef4eef8a8ded2U,
  0xf100dde4df16fb00U, 0xed0bdf15f1daddf1U, 0xf03214c9c8fd05eeU, 0xbc534f2eac3d81bU,
  0x19eb1dd516dc0bf8U, 0x3f02f714aa25c818U, 0x1bf5201101eff91cU, 0x1e9050df41400f8U,
  0xdbf9d9fc0809fe0aU, 0xfdf615071df7ef0bU, 0x308fd2e05ec0e0dU, 0x5fc07ee05d6f2f1U,
  0xd018d8120d18cfe3U, 0xedf100e50dd6fe2bU, 0x182bd4120bef2bfeU, 0xe5d208e1edf1f1f7U,
  0xdf2c1001171c12c0U, 0xdcd800e2f0bbfa14U, 0x0U, 0x0U,
  0x0U, 0x0U, 0x0U, 0x0U,
  0x0U, 0x0U, 0x0U, 0x0U,
  0x0U, 0x0U, 0x0U, 0x0U,
  0x0U, 0x0U, 0x0U, 0x0U,
  0x0U, 0x0U, 0x0U, 0x0U,
  0x0U, 0x0U, 0x0U, 0x0U,
  0x0U, 0x0U, 0x0U, 0x0U,
  0x0U, 0x0U, 0x0U, 0x0U,
  0x0U, 0x0U, 0x0U, 0x0U,
  0x0U, 0x0U, 0x0U, 0x0U,
  0x0U, 0x0U, 0x0U, 0x0U,
  0x0U, 0x0U, 0x0U, 0x0U,
  0x0U, 0x0U, 0x0U, 0x0U,
  0x0U, 0x0U, 0x0U, 0x0U,
  0x0U, 0x0U, 0x0U, 0x0U,
  0x0U, 0x0U, 0x0U, 0x0U,
  0x0U, 0x0U, 0x0U, 0x0U,
  0x0U, 0x0U, 0x0U, 0x0U,
  0x0U, 0x0U, 0x0U, 0x0U,
  0x0U, 0x0U, 0x0U, 0x0U,
  0x0U, 0x0U, 0x0U, 0x0U,
  0x0U, 0x0U, 0x0U, 0x0U,
  0x0U, 0x0U, 0x0U, 0x0U,
  0x0U, 0x0U, 0x0U, 0x0U,
  0x0U, 0x0U, 0x0U, 0x0U,
  0x0U, 0x0U, 0x0U, 0x0U,
  0x0U, 0x0U, 0x0U, 0x0U,
  0x0U, 0x0U, 0x0U, 0x0U,
  0x0U, 0x0U, 0x0U, 0x0U,
  0x0U, 0x0U, 0x0U, 0x0U,
  0x0U, 0x0U, 0x0U, 0x0U,
  0x0U, 0x0U, 0x0U, 0x0U,
  0x0U, 0x0U, 0x0U, 0x0U,
  0x0U, 0x0U, 0x0U, 0x0U,
  0x0U, 0x0U, 0x0U, 0x0U,
  0x0U, 0x0U, 0xcae9e339f7f10116U, 0xbcfc311efc3d0efU,
  0xf5e581340f1cef15U, 0x536f8e5a8c1220fU, 0xd4b7f534c7ebd637U, 0xf5ebe94adfe8bdbcU,
  0x203e509bc00d0e8U, 0x1cfbf81ac6e418e9U, 0x27c1fb1ae9decd38U, 0xc4f11234f204e00fU,
  0x2df70e02e8eff314U, 0xfc240924dc121620U, 0xbbf3f6e598e2fb08U, 0xc5e0e7abcda2e1cdU,
  0xd632d1f13037c2d0U, 0xe80417b6f003e0e1U, 0xdf1de2c2eb0adae1U, 0x9208d2ffe0c8b398U,
  0xbe0a38e6e334c5b6U, 0xcece14a5eadde196U, 0xe8d2f9d6d7ea07f2U, 0xc8dbfb1ccaf8c7f1U,
  0xe7fa36f2d1fbfdf3U, 0xe422d61319f909f8U, 0x4102d13a5eb0df5U, 0xd1e308d618dbce02U,
  0xf030f0c21edf31dU, 0xcdf042362b2efc10U, 0x424037f6d8f90ff4U, 0xbbef30d33ae7b014U,
  0xe3d42fe81af3f104U, 0xf8a51bf9fceaf71eU, 0xfd00f3e8e72deff7U, 0xd3ed100c1e10e503U,
  0xede122eaf618140aU, 0x50bfc111de20eeeU, 0x0U, 0x0U,
  0x0U, 0x0U, 0x0U, 0x0U,
  0x0U, 0x0U, 0x0U, 0x0U,
  0x0U, 0x0U, 0x0U, 0x0U,
  0x0U, 0x0U, 0x0U, 0x0U,
  0x0U, 0x0U, 0x0U, 0x0U,
  0x0U, 0x0U, 0x0U, 0x0U,
  0x0U, 0x0U, 0x0U, 0x0U,
  0x0U, 0x0U, 0x0U, 0x0U,
  0x0U, 0x0U, 0x1f10d420f4eede3dU, 0xc3faf6f23a02c614U,
  0xb2dca29d619d511U, 0xd82621f9ebe5f614U, 0xb7e01e24cf000cfbU, 0xf2fde2f10606d1c6U,
  0x1516c6dcd12be5dcU, 0xc0120b07e6c4e4f7U, 0x1dc1a19d6f3fb1cU, 0xe92219eebb08e701U,
  0x9080ce3fd19d181U, 0xb0a903dbdcc6e0c4U, 0xdb0ed30d1cfcf02eU, 0xc1e31bea95270affU,
  0xc9baf0ef3d25fc16U, 0xfff3d9dbd0e4f2f8U, 0xb0e71df9ef0de5e6U, 0xdee2e718dcb5f4f3U,
  0xec1af6e60404de15U, 0x903fc04f628270bU, 0xff0726c6c51a0a19U, 0xe905fe133dcabf0bU,
  0xecfc20fbf3eaf60bU, 0x15df4b0005e426f4U, 0x1738c1ec1eca1319U, 0xd6f1eac7f709f50cU,
  0xf619b3ff0fe504e7U, 0xbec2df013614d02fU, 0x2b3014c1c7923101U, 0xece2260cfeb60413U,
  0xa5c51dde45dadf19U, 0xf6c4f9f7382ed1e5U, 0x21210f15b5eefbf1U, 0xcfd20111ee01e706U,
  0xcd17260ff3e7d311U, 0x150d2026d705e91eU, 0x0U, 0x0U,
  0x0U, 0x0U, 0x0U, 0x0U,
  0x0U, 0x0U, 0x0U, 0x0U,
  0x0U, 0x0U, 0x0U, 0x0U,
  0x0U, 0x0U, 0x0U, 0x0U,
  0x0U, 0x0U, 0x0U, 0x0U,
  0x0U, 0x0U, 0x0U, 0x0U,
  0x0U, 0x0U, 0x0U, 0x0U,
  0x0U, 0x0U, 0x0U, 0x0U,
  0x0U, 0x0U, 0x33f539e3ef24ed1fU, 0x231939430b171a10U,
  0x99d4e9c6f307ad10U, 0xfdfdbbd7eec1e7c8U, 0x100d2c1df1cbfa31U, 0xef030800140907f8U,
  0x8de4e6d01008c434U, 0xeb26d681ed04e606U, 0x20d33e42fef0b250U, 0xd2e5c029cbe1d2d2U,
  0x13edde0d3427e5e5U, 0xef0ed7eaf0e40301U, 0xa9f92d11efbc0128U, 0xc9e3cbc5f217e413U,
  0x48c613c5f04d069fU, 0x90edf640c3e8d0daU, 0x9cef3d04fc10f401U, 0xd53ffca3d8112eU,
  0x9eb50df11918c6c2U, 0xe001300ff79aec0eU, 0x279003e8e523b21fU, 0xc2b0e4f904e2cdd9U,
  0xb9f3021a13f0f1fcU, 0xda0c101eecdbc822U, 0x1046ccd3fcbf54e6U, 0xb5df20dbcc1af41dU,
  0xebfeeffddff503deU, 0xb9b964d214241d09U, 0xf138bbd7f4e8fbceU, 0xe3f6e01d0b96ef44U,
  0xc74858111ac122f4U, 0x1ff761e12812f8d6U, 0x8cdb2e9bb1caff8U, 0xe8d1a52238e4ccd2U,
  0xd5311905fb261901U, 0x4edf60adaef3206U, 0x0U, 0xb00U,
  0x0U, 0xfd000000U, 0x0U, 0x2600U,
  0x0U, 0xfb000000U, 0x0U, 0x0U,
  0x0U, 0xf8000000U, 0x0U, 0x5800U,
  0x0U, 0xf2000000U, 0x3000000U, 0xb000000007f00U,
  0x0U, 0xd7000000U, 0x0U, 0x300U,
  0x0U, 0xd8000000U, 0x0U, 0x0U,
  0x0U, 0xfa000000U, 0x3000000U, 0x100U,
  0x0U, 0xef000000U, 0x0U, 0x0U,
  0x0U, 0xf6000000U, 0x0U, 0x0U,
  0x0U, 0x0U, 0x0U, 0x0U,
  0x0U, 0x0U, 0x0U, 0x0U,
  0x0U, 0x0U, 0x0U, 0x0U,
  0x0U, 0x0U, 0x0U, 0x0U,
  0x0U, 0x0U, 0x0U, 0x0U,
  0x0U, 0x0U, 0x0U, 0x0U,
  0x0U, 0x0U, 0x0U, 0x0U,
  0x0U, 0x0U, 0x0U, 0x0U,
  0x0U, 0x0U, 0x0U, 0x0U,
  0x0U, 0x0U, 0x0U, 0x0U,
  0x0U, 0x0U, 0x0U, 0x0U,
  0x0U, 0x0U, 0x0U, 0x0U,
  0x0U, 0x0U, 0x0U, 0x0U,
  0x0U, 0x0U, 0x0U, 0x0U,
  0x0U, 0x0U, 0x0U, 0x0U,
  0x0U, 0x0U, 0x0U, 0x0U,
  0x0U, 0x0U, 0x0U, 0x0U,
  0x0U, 0x0U, 0x0U, 0x0U,
  0x0U, 0x0U, 0x0U, 0x0U,
  0x0U, 0x0U, 0x0U, 0x0U,
  0x0U, 0x0U, 0x0U, 0x0U,
  0x0U, 0x0U, 0x0U, 0x0U,
  0x0U, 0x0U, 0x0U, 0x0U,
  0x0U, 0x0U, 0x0U, 0x0U,
  0x0U, 0x0U, 0x0U, 0x0U,
  0x0U, 0x0U, 0x0U, 0x0U,
  0x0U, 0x0U, 0x9f80ac50213ebd2U, 0xccf4d4de0bf3f005U,
  0xe62ee8efdfdbeadeU, 0x2eb04c5060cf8c2U, 0x822fcb7fb12fe1eU, 0x9103ee8faddf8f9U,
  0xdeed01e1ebfd0334U, 0xc8fe09a10910d7a9U, 0x1e10f5efd614fb45U, 0xfcf9f5db1fc6ef14U,
  0xf1f302ebfefbe9ffU, 0xe7e920810a07c5bcU, 0x50d091c02f6f8ecU, 0xd9f1d5f11c15fcf6U,
  0x102fefdc907f5f2U, 0x12ee062f0a1713efU, 0xecfcf63dc2bcd933U, 0xbcbd1c4b13a994faU,
  0xafc80bd33619d607U, 0xc930eb3ac0cfe82aU, 0xfbca2238efe4be0aU, 0xdfd8d31106ffc3e8U,
  0x101fce5dc19dbd5U, 0xd90d262cebf4170cU, 0x50e02f1fefe0cefU, 0xfa031cdddd1e0cf2U,
  0x16f910f0f60b040bU, 0xf8eff4f312e6fc12U, 0xc3fa09f3c90bffe9U, 0xe0b600ddd5b9cf17U,
  0x33fa0f193610f7e2U, 0x1bfeed2eddc40e28U, 0xfe0f8e9f4f80cfaU, 0xbd201e1ed2beefaU,
  0xf080d17d61305faU, 0x13e6fc190c020e0bU, 0x0U, 0x0U,
  0x0U, 0x0U, 0x0U, 0x0U,
  0x0U, 0x0U, 0x0U, 0x0U,
  0x0U, 0x0U, 0x0U, 0x0U,
  0x0U, 0x0U, 0x0U, 0x0U,
  0x0U, 0x0U, 0x0U, 0x0U,
  0x0U, 0x0U, 0x0U, 0x0U,
  0x0U, 0x0U, 0x0U, 0x0U,
  0x0U, 0x0U, 0x0U, 0x0U,
  0x0U, 0x0U, 0x0U, 0x0U,
  0x0U, 0x0U, 0x0U, 0x0U,
  0x0U, 0x0U, 0x0U, 0x0U,
  0x0U, 0x0U, 0x0U, 0x0U,
  0x0U, 0x0U, 0x0U, 0x0U,
  0x0U, 0x0U, 0x0U, 0x0U,
  0x0U, 0x0U, 0x0U, 0x0U,
  0x0U, 0x0U, 0x0U, 0x0U,
  0x0U, 0x0U, 0x0U, 0x0U,
  0x0U, 0x0U, 0xfc11ff3914f42eefU, 0xd4e31301de04f536U,
  0xd0fa1403391bfbe2U, 0x2d1071d05fb002bU, 0xe70a0df9e2f50d28U, 0x9fb0218d1e9fc12U,
  0xe9fd0c23edfe0a26U, 0xf72e18fdebe80918U, 0x1ee92c1cfae4f936U, 0xf5dffd56f006ddedU,
  0xc01222f0df2f9d7U, 0xef06e305dfef0f27U, 0x220dbe6e1010e9dU, 0xff0c12112dbb03f0U,
  0xd62401e4eaf2fd12U, 0xe2cb21ea3c25f8faU, 0xfef71301d6f9d350U, 0xbdf7db452381f0b3U,
  0xe611f9cef108ee04U, 0xda1f1a0b001406eaU, 0x131c0b090a1cd10eU, 0x5f222c1182501dfU,
  0xefeaec0e18fbceU, 0xbac82c0af8ff0617U, 0xf9e4efc4d4f2aeabU, 0xd503f6fb0c9fe3b1U,
  0x3cd637b9f9cf0133U, 0x36d2f00eeb08d9U, 0xfae40d32d9ffc3f1U, 0xced2d4fdf7ccf2e2U,
  0x24e8d4042c0df000U, 0x13170224c7c9d6e9U, 0x4fef718e2f1fff7U, 0xccf00cb6f034e4f4U,
  0x120fd0fcf013e5e2U, 0x22e2eb12eeecf312U, 0xdcd610f9e81a1bfdU, 0x6f5240302c3ec1bU,
  0xf0520ea1c2b26fdU, 0x1119fe18ef035029U, 0xe1eee00b011a18f4U, 0xedddda02eaf9f0d8U,
  0x121715e9fc3917b4U, 0x10f32c4ee0fa3644U, 0xf1bf8e60a2e03e2U, 0xeff7dbf1ff3504f3U,
  0x1956e1eade220eebU, 0xad5ea4e01fb0339U, 0xe6ebe6dffee102f9U, 0x2fdbf416f7f7e709U,
  0xe0fa500303000313U, 0xd1b11271c28daf6U, 0x6f811f2f9e50f10U, 0xe41ae10620e00aeeU,
  0xe015fb0304efec0dU, 0xf52f06eb28fbf9eaU, 0xfc102aee1feb0210U, 0xfcf920fd1e0efcf4U,
  0xfdddd7dffbe8daeaU, 0xb0504e7ffc40f25U, 0x10a04f50ed9fd13U, 0xeff618f6cc1df822U,
  0xe5e10dde0c02e416U, 0xe8e80ffc07e3b7d1U, 0x130103e4f5d1e407U, 0x419eee908e10a08U,
  0xdae2f5e02fe9d220U, 0xedf5f6c4fa1db7b7U, 0x2b1912f8f9cfecffU, 0xf7f904ebee0505edU,
  0xeec0eecdf5e0d122U, 0xdc0ef98100fac3ccU, 0x0U, 0x0U,
  0x0U, 0x0U, 0x0U, 0x0U,
  0x0U, 0x0U, 0x0U, 0x0U,
  0x0U, 0x0U, 0x0U, 0x0U,
  0x0U, 0x0U, 0x0U, 0x0U,
  0x0U, 0x0U, 0x0U, 0x0U,
  0x0U, 0x0U, 0x0U, 0x0U,
  0x0U, 0x0U, 0x0U, 0x0U,
  0x0U, 0x0U, 0x0U, 0x0U,
  0x0U, 0x0U, 0x162be7b7fe270cfaU, 0xd219ec9f00d1f8e3U,
  0x2f2af51503f529d9U, 0xdde418e217f015U, 0xcd823a418462fc1U, 0xb703d8a90fd11cfaU,
  0x343207dfe8d6f6feU, 0x148115dff5fa39e3U, 0xf6c810adea2d049fU, 0xbed1d500ff00f6bfU,
  0x18272900f00ff6dfU, 0xeed6090edb1356d9U, 0x1703e3151022e92aU, 0xf815fee8f8fa1323U,
  0x20312d31620f6e4U, 0xdd72d1406eed221U, 0xf3defdf624200fefU, 0x309eed603fddcf9U,
  0xa08f0f4d503eefeU, 0x1c03250d04f90c03U, 0xf84df8cb0400e2c1U, 0xfaea1ef40426ec10U,
  0x1f0b2cb54aee1423U, 0x70b0126ea0cfde7U, 0xf7e1edcc17fd02f6U, 0x253523bfc4f7fa3eU,
  0xe0911d926719e632U, 0x9272db829e4bbdcU, 0xef0b1dfdfde3294fU, 0xe20012eccb12092aU,
  0x2cbefdbc1b1d1636U, 0x1311e6de0cd5dae0U, 0xcc2b00d325ec1e3bU, 0xdef531c4db64fc38U,
  0x18cd0fda44eeeaf1U, 0x21f5cfff0fa49a01U, 0xf0ed0ebfe54a31c7U, 0xaf1edfccc20c2a11U,
  0x7253c24fa38e5ebU, 0x41c7191112da24b1U, 0xda2c20e2f51829aeU, 0xec1f0cb7ceea3c28U,
  0x370d23f815fb22f7U, 0x15dfffe5fcecfad8U, 0xd7e660f8ce724e9fU, 0xdc21e0e7c7e43f29U,
  0x1b2c33ce4f2d3ee8U, 0x31d927cf10f731d2U, 0xd00fff9ded4444b3U, 0xea14decac6ecf2daU,
  0xe243a0aef29fee4U, 0x2bc7e7e210e31abeU, 0xc63228cbdb2f39b2U, 0x82eeeadc5fc0fe7U,
  0x141525e6ecf2fec8U, 0xdc7fad4f9e3d9dcU, 0xbef045b6d66457baU, 0xeb04e7d4d1ebf5f9U,
  0x27242cea0b170fe8U, 0x29a803c805e3309dU, 0xac220ea4fd3157cfU, 0x1121d3b4b2e10effU,
  0xf82d4420f60d02deU, 0x27a8ebc001d9fcb8U, 0xa6422bc2fe455db3U, 0x437f2a6b6e201e5U,
  0xe8210fe806ebebb7U, 0x6b6f1cbffefe0e0U, 0xa3264d94eb647fc2U, 0x909eddde0f1f6ffU,
  0xf1943f411241dc4U, 0x25a304d70edd3cbcU, 0x0U, 0x0U,
  0x0U, 0x0U, 0x0U, 0x0U,
  0x0U, 0x0U, 0x0U, 0x0U,
  0x0U, 0x0U, 0x0U, 0x0U,
  0x0U, 0x0U, 0x0U, 0x0U,
  0x0U, 0x0U, 0x0U, 0x0U,
  0x0U, 0x0U, 0x0U, 0x0U,
  0x0U, 0x0U, 0x0U, 0x0U,
  0x0U, 0x0U, 0x0U, 0x0U,
  0x0U, 0x0U, 0x0U, 0x0U,
  0x0U, 0x0U, 0x0U, 0x0U,
  0x0U, 0x0U, 0x0U, 0x0U,
  0x0U, 0x0U, 0x0U, 0x0U,
  0x0U, 0x0U, 0x0U, 0x0U,
  0x0U, 0x0U, 0x0U, 0x0U,
  0x0U, 0x0U, 0x0U, 0x0U,
  0x0U, 0x0U, 0x0U, 0x0U,
  0x0U, 0x0U, 0x0U, 0x0U,
  0x0U, 0x0U, 0x0U, 0x0U,
  0x0U, 0x0U, 0x0U, 0x0U,
  0x0U, 0x0U, 0x0U, 0x0U,
  0x0U, 0x0U, 0x0U, 0x0U,
  0x0U, 0x0U, 0x0U, 0x0U,
  0x0U, 0x0U, 0x0U, 0x0U,
  0x0U, 0x0U, 0x0U, 0x0U,
  0x0U, 0x0U, 0x0U, 0x0U,
  0x0U, 0x0U, 0x0U, 0x0U,
  0x0U, 0x0U, 0x0U, 0x0U,
  0x0U, 0x0U, 0x0U, 0x0U,
  0x0U, 0x0U, 0x0U, 0x0U,
  0x0U, 0x0U, 0x0U, 0x0U,
  0x0U, 0x0U, 0x0U, 0x0U,
  0x0U, 0x0U, 0x0U, 0x0U,
  0x0U, 0x0U, 0x0U, 0x0U,
  0x0U, 0x0U, 0x0U, 0x0U,
  0x0U, 0x0U, 0x0U, 0x0U,
  0x0U, 0x0U, 0xd900cdfdd6e213e6U, 0xd7effe1aece0e2dcU,
  0x1fcd18df0b0c2933U, 0xd1522152eab43300U, 0xecebf6edde0102d9U, 0xaf2fcdaadeaf304U,
  0xe0a40042c1750fcU, 0x73f9d1702e41f06U, 0xf2ad0de6e4edfad9U, 0xe8f0e8b2c6dd0200U,
  0xe2e0021cd0f30c99U, 0x7f819311c22fe3abU, 0xe70d1e10e5df070dU, 0xfcef152e2a180932U,
  0xf0122ddf802fe41U, 0xed401f4213dc1901U, 0xfefe1716d105f129U, 0x21a1af30e26e10fU,
  0xfe2525e61d16f90eU, 0x173ae7184805ecf8U, 0xfc0149f7c3e7041bU, 0x8be24d8f1fc1121U,
  0xec0fdee21affb8d0U, 0x5ebde606034dddcaU, 0x1bec070fd4cbcee6U, 0x537052b16c2fcdbU,
  0x1dfbfaf7d9fbdf31U, 0xed4656551ad806f5U, 0x604faee02eecf17U, 0xf74cf83919dfe3f8U,
  0x5ea05cdee30U, 0xf00d2a072514cfe8U, 0x16ef14ffd5d7d81fU, 0xcf2c17f610d7e72eU,
  0x1ee5ccffdee6cf23U, 0x50f719fedb1fbfe4U, 0xb5356aa8b1f5ecc0U, 0xeffdfeedefeab106U,
  0xdf5cb2da34f0def8U, 0x324250fce1c90193U, 0xcbc51aed8711c740U, 0xcdf8f422f4d6afcfU,
  0xf0f217f9fb01e6edU, 0xa3c023a09c4c297U, 0x3e7e1c620fcac0cU, 0xeef332fa1224e9f9U,
  0x44da07abe74e1c4dU, 0xe21e0529d708addeU, 0x1a350354b0560319U, 0x8eb4bcb43edac1f3U,
  0x3320c22703eb028bU, 0xa5bc2a1e05f10a2eU, 0x31e0f30a0c433edbU, 0xd6ef2d08bc1a1e10U,
  0xa1c21cb8eb57c396U, 0x9ac60dbbb8e3320dU, 0xedc3d1d132ca2a3aU, 0xcbeefcf4dd1df34aU,
  0xf4cf42980638dbd7U, 0xf113f3e61bd2f90eU, 0x37011b239d81ea05U, 0xe3a6cf39c6b7f924U,
  0xf4bb18ed02d70032U, 0xeaeb0e03f8c32557U, 0xe7a108d3de8c0ee6U, 0x13bded0fcfe0045eU,
  0xf9c314c9e4c31243U, 0xb0200081ce6fcd6U, 0xf102d7ceefeff8efU, 0x1608e0d108f5e2feU,
  0xe421e3fed6ab2134U, 0x25eb0f422f1fe0U, 0x0U, 0xb5000000U,
  0x0U, 0xf20000U, 0x0U, 0x0U,
  0x0U, 0x810000U, 0x0U, 0x0U,
  0x0U, 0xfe00ff0000U, 0xff00000000000000U, 0xd4000000U,
  0x0U, 0xfe00fa0000U, 0x0U, 0x0U,
  0x0U, 0xe40000U, 0x0U, 0x0U,
  0x0U, 0xe700000000U, 0x0U, 0xec000400U,
  0x0U, 0xfe00000000U, 0x0U, 0x4040000000000U,
  0x0U, 0xff0000U, 0x20000U, 0x4030000000b00U,
  0x0U, 0x400000000U, 0x0U, 0x0U,
  0x0U, 0x0U, 0x0U, 0x0U,
  0x0U, 0x0U, 0x0U, 0x0U,
  0x0U, 0x0U, 0x0U, 0x0U,
  0x0U, 0x0U, 0x0U, 0x0U,
  0x0U, 0x0U, 0x0U, 0x0U,
  0x0U, 0x0U, 0x0U, 0x0U,
  0x0U, 0x0U, 0x0U, 0x0U,
  0x0U, 0x0U, 0x0U, 0x0U,
  0x0U, 0x0U, 0xf81f28f80a11f2f6U, 0xf4c01db815eae228U,
  0x2d842f0f202aeabfU, 0xbfeb1811bf110d15U, 0x3b1506bd0a1a120bU, 0x8cc1fe81eb03d810U,
  0xbd109c1cdd28fbadU, 0xe581faded6dfe51aU, 0x1b15dafbe00df730U, 0xefeffaf2fa0304cfU,
  0xd62dae0df304e72bU, 0xf3e80ce32506f4e7U, 0x36150ce5f1fdfeeaU, 0xf3b521c6def0bb16U,
  0x16cc1e0c1aea3bf5U, 0x18c5d2edd5c8f00fU, 0xe6eb0034c8e3f122U, 0x89b4d8fcedfade20U,
  0xdef8f0f31421cdc1U, 0xf2a11afbdf1df904U, 0xefede91ce2f4db0eU, 0xebccfa0b0614e5d3U,
  0xff10004da1f0904U, 0xf4f8f9e8e60029ddU, 0xb9030fe6f607fdf4U, 0xb0f93bf2cff8effeU,
  0xdedc17bbfd1a0601U, 0x16bd0829edd9ff10U, 0xccb709dbf5051b08U, 0xcaf701391902e319U,
  0xd0ce20c2deff0807U, 0x13dcf22023f51ac7U, 0xe9f30cfdfdf3e723U, 0xfbfcfa30020ef501U,
  0xf20f23d9f81af602U, 0x91815331e14f7f0U, 0xd8e82503e5b60211U, 0xf5f9def9faf2ecf2U,
  0x15fb0fab22f3281eU, 0xf817040b150a0519U, 0x5d25426fdf2090eU, 0xf4122f09a518fc1cU,
  0xdc9c34e00318ddf6U, 0xb8f414f7dae403d9U, 0x1dd22d22f414e60aU, 0xe2f7ed10ddf91002U,
  0xabdf2802fa28c7ebU, 0xc4fb0ce9f2a6ebe9U, 0xcbf0daf3e5ecffcbU, 0xaedfbcd616d5e49dU,
  0x1819e3f29f0d20feU, 0xcc09cf22f8f9191eU, 0x8770d305f3f2122fU, 0xc4e9faece006d20dU,
  0x50eb2ff415ef3e05U, 0x3e14093105eae0beU, 0xd5e5f7e7f20eb527U, 0xb5c6ed25e8eade2aU,
  0xd716fbf4fbe8f3ecU, 0x37bd7f3cdadce8f8U, 0x4414040800231118U, 0xeaf4f4d1f3fa00f7U,
  0xb212a515e829cfd9U, 0xeecbdccd25f7cc01U, 0x5b1404f3cfe135f5U, 0xeab4d01b13e9dfe3U,
  0x8c1cbf20d406d6f5U, 0xb2d8d5affec9e907U, 0x2d09a40ac5f6f2f3U, 0xe6f403183ff0f001U,
  0xc534e5240d1fecbbU, 0xeed8e8f2d51b2220U, 0x0U, 0x0U,
  0x0U, 0x0U, 0x0U, 0x0U,
  0x0U, 0x0U, 0x0U, 0x0U,
  0x0U, 0x0U, 0x0U, 0x0U,
  0x0U, 0x0U, 0x0U, 0x0U,
  0x0U, 0x0U, 0x0U, 0x0U,
  0x0U, 0x0U, 0x0U, 0x0U,
  0x0U, 0x0U, 0x0U, 0x0U,
  0x0U, 0x0U, 0x0U, 0x0U,
  0x0U, 0x0U, 0x0U, 0x0U,
  0x0U, 0x0U, 0x0U, 0x0U,
  0x0U, 0x0U, 0x0U, 0x0U,
  0x0U, 0x0U, 0x0U, 0x0U,
  0x0U, 0x0U, 0x0U, 0x0U,
  0x0U, 0x0U, 0x0U, 0x0U,
  0x0U, 0x0U, 0x0U, 0x0U,
  0x0U, 0x0U, 0x0U, 0x0U,
  0x0U, 0x0U, 0x0U, 0x0U,
  0x0U, 0x0U, 0xff13f91e11f5efffU, 0xf90001e71109fc10U,
  0xf801e00ef6e116dfU, 0xf3fd17ed09080912U, 0xd911de2f01cd0d30U, 0xcfd5dd350bcecbf3U,
  0xcae0f613e813d71cU, 0xfe0b0631beccf719U, 0x27f0f0ebfbfcc21bU, 0x8fe161ee10feb0cU,
  0xcae52bfc0a15ee15U, 0xff151840f9021bd9U, 0x1801fbd9090af1e2U, 0xf90122fcf912fe10U,
  0x11070d070bd9f9ffU, 0xf9ef120f19051303U, 0xf80b0b0ef1cf02eaU, 0xedce81e604a2caddU,
  0x1311c4f5fb04e7c6U, 0xc5d40ecb1608ee23U, 0x1031f1cd9fe0bfaU, 0xdef546f1d31bdd1fU,
  0x1c605e9163ae2fbU, 0xeac7eaccbebdbff4U, 0xde8e5bb0711fac5U, 0x1006f70d0eddfc0dU,
  0x101604f2e5e7121aU, 0xfe30feec190309e1U, 0xe00ef5cdea11fdd3U, 0xe7d7d2f509e5f0f7U,
  0x101c14f30cf21af8U, 0xdc28e10007050aeeU, 0xcf101bdbe61b0e08U, 0xc5e916d8cde1dd08U,
  0x1f0b27e5dcde04d2U, 0x1206fcd5f4d6040eU, 0xea130db7e8421012U, 0xd7060ef00d46d4efU,
  0x42020435ff7f0eadU, 0xf8da18302fd9592fU, 0x2646e3fdf1113e9eU, 0xf9f0e2d311f91d10U,
  0x1941db19f3b70fe5U, 0xfc8148c7ef1b9039U, 0x95eff4070606399aU, 0xcbed05eeafe70601U,
  0xfd15fcec0ebee725U, 0xdae8e2d52235de1cU, 0xf0136521ec17fe50U, 0xf5f81ee21506ce53U,
  0x2c112b3829faf6e4U, 0xdb4504d303cc0531U, 0x43390ff9d9d63a62U, 0xf1ff09f723131814U,
  0x808f85a09fed8fdU, 0x1418f3da1accdbf9U, 0xc491f2f4ea94c24U, 0xe9f1271b17e521f9U,
  0xec1321091ee5f02eU, 0x114fd20b3930051bU, 0x13d00b46a6fd8440U, 0x1fcc29122017a7c6U,
  0x7dfd13ce2f23301U, 0xe1309f02b8c7304eU, 0x3004c45ebde89777U, 0x1cd6d7f6e7eaf6b1U,
  0x17e8df08d331d0f4U, 0xcf619018cbedb08U, 0x2205b5fce4d0a129U, 0xc8120c5eabcacdd6U,
  0xebb63af0eb28b2eaU, 0xff15e713c9e8a8a1U, 0x4620fdff0dfabf42U, 0x142120d316280725U,
  0xc216f3f1ea1c0a16U, 0xb4f40fec08f7adffU, 0xbbf5253acca2b221U, 0xcfd0db61baa4d3f5U,
  0xd40bf6bd3a10a11cU, 0xd141e816b7d30b41U, 0xabf0a2321bef200U, 0xf1e0cd20e8fad9f3U,
  0x14db1cccfe0dfee6U, 0x21e2c43f8ef4102U, 0xbb0d2622e0cf02fdU, 0xe6db3ebef507dd02U,
  0x76d61bd5f922eaecU, 0xa0cee1c6d6f7c611U, 0xeffc4ac896f30bc8U, 0xe0d4e7fdcf81a922U,
  0xe2bf2fd644dbfac3U, 0x1924ec2fdce8cc98U, 0x18efdcc7fb29f2c5U, 0xefecccb71b170eaaU,
  0xfb20ea0eb2172508U, 0xea0d1bf8250ff2f5U, 0xdd2c06ecf3f81722U, 0xccece4d2cddae706U,
  0xca16160cff0e1a8aU, 0x412ecf4e5c8f206U, 0xe82bd4c0d9484101U, 0xdcc1dfd40de8d21bU,
  0xc0142717e2e7eed7U, 0x17d90fe309d71afaU, 0x13e8fa08e327c62aU, 0x30e1c1da0501d7cbU,
  0x511c01bc00e1ef8U, 0x6e2f7ee1b121308U, 0x0U, 0x0U,
  0x0U, 0x0U, 0x0U, 0x0U,
  0x0U, 0x0U, 0x0U, 0x0U,
  0x0U, 0x0U, 0x0U, 0x0U,
  0x0U, 0x0U, 0x0U, 0x0U,
  0x0U, 0x0U, 0x0U, 0x0U,
  0x0U, 0x0U, 0x0U, 0x0U,
  0x0U, 0x0U, 0x0U, 0x0U,
  0x0U, 0x0U, 0x0U, 0x0U,
  0x0U, 0x0U, 0xfd34d9110be0e20eU, 0xf2fbe8223afadbffU,
  0xde10df02d2fc0422U, 0xda1207dbf4f40127U, 0x29faf717f6dcd853U, 0xede9ee16dfe2b7e6U,
  0x3d4f91bf304e116U, 0x60911fcd9f0f128U, 0xf90102ea06f8ebe6U, 0x80209dd0e09f909U,
  0xef9fe0ffcfe03f1U, 0x13f30bfb06050bedU, 0xfe001700e2dad3e3U, 0xfbf342fccbef1416U,
  0x5fb19ce272dee0aU, 0x906feec19f8f8f7U, 0xbbb1fd17eeebe909U, 0xd1dd811df1e5b6ecU,
  0xc60020e02af6e4bdU, 0xd7291928f1f430f3U, 0x20cf3df1506f8c0U, 0xfd0514e005f10afeU,
  0xd09f2e2d208070aU, 0xedf409f110fb0a04U, 0xca1631f0bb061df7U, 0xecee41cfbfdaf60eU,
  0x10f715e518ea07f9U, 0x140be801c6e5e1f5U, 0x6ec05cbe232fc04U, 0xf4d0b6e2f001cef3U,
  0xfbfaff0c15050ef2U, 0x160f01f800fdede0U, 0x25f7e003fe090b05U, 0x9fe09d6fe0905edU,
  0x112d722d92906faU, 0xf0dc0a05180603fbU, 0xd122fb1ee998044dU, 0xee90124191e0408U,
  0xe215ddeda1e4d5d3U, 0xda8d2f09eec0abe9U, 0xce1bf42df08dee39U, 0x29edee210811fcd9U,
  0xdb06e8edc8cec8e4U, 0xfab8563a04d8dcfeU, 0xba12d53fed96cc30U, 0x7f3e2340006f8aeU,
  0xaefec4f0c7d2e7f5U, 0x1aa037100bb6dddcU, 0xff34fa160cc3f838U, 0xcf0c6cd5265eca14U,
  0xee1ec226cc26a8e7U, 0xd08b59f5e8dac8fcU, 0xfb2dd0f6d681e238U, 0xcbfe39fd0f4edbe5U,
  0xee07d90eb9eab02aU, 0xf1cd673502f0b9e6U, 0xdf0fd115e48fc11cU, 0xe90e2c1e0900ddc3U,
  0xe308d8e8e6e2d515U, 0x17ed610009d6d6cdU, 0xd50c2f15b5ee075dU, 0xd9fc55fd3335eb3dU,
  0xbffad401cfc7c414U, 0x11ba290f1b15f40eU, 0xe60df106aeadfc52U, 0xe31f3d07143807f7U,
  0xdfeec624c3c7ac0fU, 0xe02b310dffcdffU, 0xe120d217a5a3e640U, 0xea131b12033505d8U,
  0xe5fcbd1cc8cdb00aU, 0x5d929f701d6bbcdU, 0x38e4ef81ffedcbb8U, 0xeeeb0fccd6e302ecU,
  0x4093d87fef1cd19U, 0xe53f09e043052793U, 0xb19010bf6e0b7dbU, 0x110e03f503020d15U,
  0xd81ddac71910ce14U, 0xe316fc8106d91010U, 0x5f61249f0cec324U, 0x8fee61f19f8e9f4U,
  0xcee1d3d31d25b204U, 0xd60008fdc3f4fd06U, 0xfc11f1d6dbe9d9f3U, 0xeac2f0ea24d3c8c9U,
  0x27ebfe9808e6262dU, 0xee0bde04deeb17d8U, 0xbb082f98e940120dU, 0xd9df20d8a707db16U,
  0x12d5f5d729e20a27U, 0x492a231cf9d8b8eeU, 0xf4fe36dde7300417U, 0x23e206fceaf0f105U,
  0xdd16e0f7fa0ccad8U, 0xfed031fffcdd20eU, 0x114f1270afdd809U, 0xe6c3ea111109f3f0U,
  0xef13cf15f7f8f9cbU, 0xf3d1be0a071f183dU, 0xe338d428eea95003U, 0xe3c2e0f200f1d4feU,
  0xf1002711c8f71de9U, 0xd9d806fef2200df8U, 0xeffd03e405eff6f4U, 0xfaf7ec14e8eef40fU,
  0xf6f02506ed1511e5U, 0x110845fb05f8070fU, 0x1e12faf1f4f5d745U, 0xdbf9ee1ef8f4cce7U,
  0xb2e5fa21f2d8f337U, 0xf72b0c20d605ebdaU, 0x1ffdf59ff213e40eU, 0xf502fafaf9f5fcfbU,
  0xee0afd0ce9f8f007U, 0xd5291bbc1124cfdbU, 0xc0df6f506fbcf18U, 0x70c01fc2d06f8f5U,
  0xfaf9f8e6e4dff027U, 0xec28fbda0dfd00fcU, 0xef2cf94b0ab90d28U, 0xbcdba9df2700c500U,
  0xeae2aae6c147bcd9U, 0xc4cd17fbd0eac326U, 0xe902323bb8db0bfdU, 0xd5cb6a1fb206ea1bU,
  0xc6d634aa497fb9f2U, 0xe5d9cff997c9d3d4U, 0xedda1501efd9d00eU, 0x2f2d720c5ead8f4U,
  0xdcff2ae3f8e6e816U, 0xea3605430fe909f8U, 0xf05eff50d04eff8U, 0xe4d2b8fa0628f5eeU,
  0x2a22daf8bce118cfU, 0xdf04fd0026072d19U, 0xc60312f8c704260aU, 0xa0d327dddca3d911U,
  0x2af51ff70ddcf9bfU, 0x24bfdf17fec9fd1aU, 0xe6ed1ce4fa2c03deU, 0x12d7fbe8e0fbf308U,
  0xc00000710ed01eaU, 0x150403fe0707fff6U, 0xfc02e6b5fc1af911U, 0x18dad60a0fc9d9eeU,
  0xf22b15dacad40615U, 0xd9fd28ed1323f7c3U, 0xedfd0984d420d1a1U, 0x21e80de604f5ef1fU,
  0xf5f616811ccc16cdU, 0xf2b22ea70e3605d8U, 0x223009981b15031bU, 0xd4e6f2e01e1bdd24U,
  0x8ffad704fcf71b1cU, 0x9f24048c041312f8U, 0xecf0efe3d8baebe0U, 0x130bc5fe0ec509faU,
  0xee0166c305240028U, 0xf0601395ced36d3U, 0xfbf8f895f4bff1c4U, 0xffea2aaf0f34dd23U,
  0x30f0db8b360d1f13U, 0xd90b04c5ede1dbedU, 0x3112f52715110123U, 0xdaf62dd40b0e0a48U,
  0xb6f9d8e8090ef3d8U, 0xeee4fbafe6c1db2aU, 0xda071edee0f4e8f6U, 0xfc2ffd07e5fdddd5U,
  0x2c18f3e72606190cU, 0xf94adbf9c4f9e311U, 0xdafff1e906332b12U, 0xdc9c1ff3b721ee04U,
  0xb2301ed1fdffcd6U, 0x24dbfcbfaad5f4f2U, 0x10136f5e018dc26U, 0xf2da22f1cac7cf1cU,
  0xd8c9fa21fc0505ccU, 0x20d0ff15a8b9ed10U, 0x0U, 0x0U,
  0x0U, 0x0U, 0x0U, 0x0U,
  0x0U, 0x0U, 0x0U, 0x0U,
  0x0U, 0x0U, 0x0U, 0x0U,
  0x0U, 0x0U, 0x0U, 0x0U,
  0x0U, 0x0U, 0x0U, 0x0U,
  0x0U, 0x0U, 0x0U, 0x0U,
  0x0U, 0x0U, 0x0U, 0x0U,
  0x0U, 0x0U, 0x0U, 0x0U,
  0x0U, 0x0U, 0x0U, 0x0U,
  0x0U, 0x0U, 0x0U, 0x0U,
  0x0U, 0x0U, 0x0U, 0x0U,
  0x0U, 0x0U, 0x0U, 0x0U,
  0x0U, 0x0U, 0x0U, 0x0U,
  0x0U, 0x0U, 0x0U, 0x0U,
  0x0U, 0x0U, 0x0U, 0x0U,
  0x0U, 0x0U, 0x0U, 0x0U,
  0x0U, 0x0U, 0x0U, 0x0U,
  0x0U, 0x0U, 0x0U, 0x0U,
  0x0U, 0x0U, 0x0U, 0x0U,
  0x0U, 0x0U, 0x0U, 0x0U,
  0x0U, 0x0U, 0x0U, 0x0U,
  0x0U, 0x0U, 0x0U, 0x0U,
  0x0U, 0x0U, 0x0U, 0x0U,
  0x0U, 0x0U, 0x0U, 0x0U,
  0x0U, 0x0U, 0x0U, 0x0U,
  0x0U, 0x0U, 0x0U, 0x0U,
  0x0U, 0x0U, 0xafed342ed0efeffeU, 0x1306fb1700f3f3f8U,
  0xf5d011531ff81301U, 0xf11e13cd23e2e032U, 0x99f30f0eb1d19a09U, 0xde01e535d4f5ecf3U,
  0x1714260ff32103e7U, 0xe36ff33c0eadd20U, 0xafdfb9d1cec161eU, 0xfbfe26efecfef618U,
  0x3541000af5e907deU, 0xdf0c0e10190be50cU, 0x10e019e9cc1afd1cU, 0xe9f0050fd4d1f32fU,
  0x2ef4df05c401dcU, 0xbd052aeb102f0cd8U, 0x1a2932fde43b07beU, 0xeffc040717f2f1fcU,
  0xc8d206eee9241ff8U, 0xc7cd05c3eadd0de7U, 0xd234dc003403031eU, 0xc8ed14b6f4330823U,
  0xad81e1ed20212407U, 0x20d9fafeafdd1209U, 0xec050fcbfdc00406U, 0xd9de0cdccab60a4bU,
  0xdb0630b33dd40650U, 0xffb7f313351115f7U, 0x3c1e1ab2e9d404dfU, 0xeadeb3b522b50204U,
  0xa10eefd2e6f60125U, 0xd6ac10f815e70903U, 0x3117d3040e022b01U, 0xf8fe0ebc171df534U,
  0xafe6d9f14505e59fU, 0xe7b4d9f703eb0d20U, 0x0U, 0x0U,
  0x0U, 0x0U, 0x0U, 0x0U,
  0x0U, 0x0U, 0x0U, 0x0U,
  0x0U, 0x0U, 0x0U, 0x0U,
  0x0U, 0x0U, 0x0U, 0x0U,
  0x0U, 0x0U, 0x0U, 0x0U,
  0x0U, 0x0U, 0x0U, 0x0U,
  0x0U, 0x0U, 0x0U, 0x0U,
  0x0U, 0x0U, 0x0U, 0x0U,
  0x0U, 0x0U, 0xc31e0000ee1d306U, 0xf5f411fcfaf0e706U,
  0x3e0fd0fecf2ff29U, 0x12262cf513fd07fbU, 0x8071bfddbcef30aU, 0xaf6fb0ef4fbca01U,
  0xeb7f418f7e7e013U, 0xee2315f110b3e81dU, 0x1c01e906d6e1e435U, 0xf7e82a16ed10d50aU,
  0x20d22717e7eeefffU, 0xbfef3f3d8cbf20cU, 0x19f31d0ded0927U, 0xede5220a0eeccd00U,
  0xdd06fb16fffb020dU, 0xfdfcfe13effa232eU, 0xc2ba0417db1ed209U, 0xeabd8903e881cb94U,
  0xfe44c4fe150c13e1U, 0xf20f06cbc9e811dbU, 0xeccad6f9ee02e626U, 0xefeb0127ebedc7c8U,
  0xe1081ef1bd31eeebU, 0xe5f9d513dde50600U, 0xe00ede0bdfe71417U, 0xece5e9e8f9f8e5edU,
  0x150ed613052704efU, 0xe900e201f7fff31cU, 0xfe0114e5d5120feaU, 0xd2e4ded7f8c5f4b1U,
  0xfcfdfddf301eeaf5U, 0xf8d634ebf02ceae9U, 0xf50311e0f6280d06U, 0xafe5061923fedefdU,
  0xdafd2afbf010fadfU, 0x9fcfef104dcfbf3U, 0xfb0a2317f2e8c81cU, 0x5db19eecbf5e8U,
  0x1ec0f020a1ded1dU, 0xf319fe06f1edecf7U, 0xfb01400ddfb90c0cU, 0xfae700ff0b1402fdU,
  0xf3dce6e3fa2ddf05U, 0x81ebe423e6de92e5U, 0xf01b311005eb090eU, 0x716200aebf8100dU,
  0xb9e5e9d51bfce713U, 0xc312c0f7cfd7beefU, 0xd91f03f7ebe292f7U, 0x5e6d7ee20e0c7ceU,
  0xdf6e5f4eb1510f5U, 0xd80edb03d90b06eaU, 0xda16f71efdf5faffU, 0xd6e515f2d809e915U,
  0x27ded9ed1c13f3bcU, 0x10729eae8fd0202U, 0xfc01e7e6f73526fcU, 0xd9ead6ead4d3ee11U,
  0xc9f80cfa0ef7cea1U, 0x30ff332506dbcf30U, 0xfff0ef02d406e7eaU, 0xd3f4e21401d0edbfU,
  0xeb3110e2f9091f0fU, 0xf81fdcfaf7242523U, 0x1af8fe02f2de11f8U, 0xf1e11e140bd2ee0aU,
  0xe0fc18f7d51aef12U, 0xcd0c2ee1160a1ff7U, 0xf8e3ffbce7d420e1U, 0x4f41908fef2f612U,
  0xfcef25e5e0fc1418U, 0xe9091cda362131f0U, 0x151dffdb01dec7f0U, 0xf70de61803c00318U,
  0xe3f2dcf0f6fbd42cU, 0x856261109e2febaU, 0x10dd06fd9be9ce16U, 0xf20d2cfed929dff2U,
  0xe1cfd4ded0feb600U, 0xf30fe78afab3a993U, 0x280beb26fcfec343U, 0xe8f4190828d0fe04U,
  0x22e6f7faf818f010U, 0xfba80fc006f5dfe4U, 0xf12ceb00f8eecd0fU, 0xa9dccdd1f2b5d3d3U,
  0xf44699c63517c419U, 0xec07ee03ccde13f2U, 0xa8cb3ab1a2311606U, 0xe0d8d0f4dbc7c9a2U,
  0xf6103cb1015c2c7U, 0xe2242eeca2023281U, 0x6d2efeae8f7b220U, 0xf7ec262ad111b9e0U,
  0xf9de31b5bc43f3d9U, 0xd6cbe726f7e1e2e6U, 0xee3ae31703e9140cU, 0xade0d3de0ef1edf3U,
  0x6e8d2047015f6ebU, 0xf4d3ec28180df53dU, 0xfcf32b2cdefa3cceU, 0xcfbdc1e118c2fdf1U,
  0xbbc2e0e34d7f8f2U, 0xeed162ee21cfa3aU, 0xe0e7ec190005e3U, 0xffe316191116fd17U,
  0xf21741fdb82601e7U, 0xfaeffa1426ea1ff0U, 0x0U, 0x0U,
  0x0U, 0x0U, 0x0U, 0x0U,
  0x0U, 0x0U, 0x0U, 0x0U,
  0x0U, 0x0U, 0x0U, 0x0U,
  0x0U, 0x0U, 0x0U, 0x0U,
  0x0U, 0x0U, 0x0U, 0x0U,
  0x0U, 0x0U, 0x0U, 0x0U,
  0x0U, 0x0U, 0x0U, 0x0U,
  0x0U, 0x0U, 0x0U, 0x0U,
  0x0U, 0x0U, 0x32e6efc2e9dacf1fU, 0x110a07dd1129e0ecU,
  0xe3233bc9eff4090aU, 0xce0806e718efe3dbU, 0xfc16e6c20df40084U, 0xd003f7cb320c0618U,
  0xfd2ae9b2d70300fbU, 0xe1ce0d86e828fce1U, 0xef13f9e60508e1beU, 0xeec9e220af0113U,
  0xf4e5eca6fa030b00U, 0xe1d8f19728f508e5U, 0xf6f528efe3dfcefaU, 0x1b1311eadc09030bU,
  0x1dd10df02b130410U, 0xfb11fb2edbbae9c9U, 0xf5e7ecabec00d42eU, 0xcdcf58acab0edd17U,
  0x33d4ebf2110b0e02U, 0x26eee903d308efe8U, 0x4920e61004d6f82dU, 0xf4eec8b62ac3def3U,
  0x1d24d80c951f0505U, 0xd1d625af0b03e1eeU, 0xc3232a040a0418edU, 0xefd3c319f8beedfdU,
  0xe7fdefea2a1ee6b8U, 0xf4093bf2e3fd1703U, 0xbdf504eaee401feeU, 0x17811625bdc0cd05U,
  0xfbc124f5fa1509d6U, 0xbf4f806ffe80d02U, 0xf5d3f9f80c0bf016U, 0xbf10200e903eeffU,
  0x20f0a0fb50f0611U, 0x10efb5a0f130d18U, 0xfdd10318facfad07U, 0xeef8f63f26dcf6eeU,
  0xcb020ac31245b70aU, 0xd113ee23dee9f8e2U, 0x11edec02faf4e5f8U, 0xeff218b8fd230615U,
  0x140306f4044aeaf5U, 0x9d900903f7e9ef9eU, 0x2713cfbf00e20426U, 0xf1ecf5a925fdfe0aU,
  0x13fcd00fe30d0102U, 0xc6bcf790131ffdc0U, 0xed073c12e2fa00f4U, 0xdde1cdd51202f4d5U,
  0x47e614050e0c16fdU, 0x9310e60708edf4fdU, 0xfd2f400df6110f36U, 0xc5df2781ac1add1aU,
  0x35ea011811f3f5ebU, 0x3e61adaf7bfcb0bU, 0x8ffd90cf436d532U, 0xfad512c8e1d0e715U,
  0xfd2ad80edddef9f3U, 0xfed70e0200f7ef0cU, 0xf32dfd030af317f4U, 0xe1eddc0ae60feefaU,
  0xce16fd0cac0209ebU, 0xef1218f2fc010417U, 0xdd04d1d9e7fc2dedU, 0xcdabd221fbc5dc10U,
  0xdae630fdd7d70bf8U, 0x1b12321b01d21004U, 0xf3ca09e3080bd6d7U, 0x12eff71305eaf109U,
  0xf40410e307ee09f0U, 0x1819e92402071507U, 0xd92d47f2cc81ddd0U, 0x6fa02effbd605fbU,
  0xcef03e52b0b0a28U, 0xd9291bcbfcd2b8efU, 0x141d430c04e347f2U, 0xcc0203d7a413f213U,
  0x10c6c1f2332bf708U, 0xee1a4706bee08144U, 0x180cdce1fa51073cU, 0xf7e2efe2e4cfb90cU,
  0xe707cd14cf03e6ccU, 0xfedffc05f8cdce19U, 0xd91bcf34c2e5e6ddU, 0xdbe519c61de2cb07U,
  0x2e8bdeee80c07ccU, 0xc9f863f0b01d1c00U, 0xde2aefe075821fdU, 0xdfc5d0e9bfd3dc26U,
  0xfeec35f6d4d4e0baU, 0x45231b084eeb0930U, 0xfcc516c5ae17e6cbU, 0xbeaac0a2ad3c1a7U,
  0xf0c34d7d6fa0eeaU, 0x240dde2d04ff1fecU, 0xdcca0408c0d2f4feU, 0xf1dc015107ad0600U,
  0xdf4504cceb150e31U, 0xe602e42804093323U, 0xeaae3df9d28cf204U, 0xebaff5312cf4f74bU,
  0xf90e22ccb728053aU, 0xa503e206f6f533b1U, 0xddd010baffb61706U, 0xfeec071aeef2ece5U,
  0xf5e118caf4020529U, 0xe219dfe0351e19c3U, 0x0U, 0x0U,
  0x0U, 0x0U, 0x0U, 0x0U,
  0x0U, 0x0U, 0x0U, 0x0U,
  0x0U, 0x0U, 0x0U, 0x0U,
  0x0U, 0x0U, 0x0U, 0x0U,
  0x0U, 0x0U, 0x0U, 0x0U,
  0x0U, 0x0U, 0x0U, 0x0U,
  0x0U, 0x0U, 0x0U, 0x0U,
  0x0U, 0x0U, 0x0U, 0x0U,
  0x0U, 0x0U, 0x0U, 0x1a600000000U,
  0x8003468900000000U, 0xe04ab042fffffaf0U, 0xfffffebcU, 0x0U,
  0xfffff97100000000U, 0xfffff38500000000U, 0xfffffa3f00000000U, 0xa8594e14U,
  0x8003470300000000U, 0xfffffe6eU, 0xfffffcd200000000U, 0xfffffd24U,
  0xbd1000001d3U, 0x0U, 0x0U, 0xffffee78fffff749U,
  0x8003468bfc7f4364U, 0xfffff6d00000024cU, 0x0U, 0xffffefeafffff860U,
  0xfffffa77U, 0x251ffffffab3U, 0xfffff7f9fffff8b7U, 0x28U,
  0x0U, 0xffffed81U, 0xfffff9a5fffff8a2U, 0xfffffa1bU,
  0xfffff9ddfffffafbU, 0xfffff559U, 0x30000022000000U, 0x2e000c00000000f1U,
  0xff000000000b00U, 0xfdf300dd0a00U, 0xe8d8000006ec0000U, 0xfd3100cfe6d60000U,
  0xe8000000eadae4U, 0xf7cfd1001e0d1bU, 0x2f0000fc000000U, 0x3900000000c8U,
  0x9000000001000U, 0xfc0500eb1200U, 0xdde00000fc080000U, 0xfe0600d40ff30000U,
  0xeb00000007fbf2U, 0xf1ccf4002febfcU, 0xdc0000fe000000U, 0xfc00ea000000000dU,
  0xaf000000000100U, 0xfe0d00e40900U, 0xf4e000001b020000U, 0xfee700fb11010000U,
  0x250000000dfbf0U, 0xd8f4210011f905U, 0xea0000ff000000U, 0xf000d600000000d6U,
  0x3e000000001c00U, 0xffe300db1a00U, 0xc1080000d3e10000U, 0xfd2a002bf7480000U,
  0x4000000e8d204U, 0xade7be0001f8b1U, 0x25000005000000U, 0xb600ce00000000faU,
  0x2b000000000400U, 0xfeee00f40e00U, 0xeaee000024ed0000U, 0xfed700a800210000U,
  0xf6000000d310d1U, 0xe7fdf800ea0ed9U, 0xeb0000f4000000U, 0x800dd000000000aU,
  0xca000000001900U, 0xfe0b000cfa00U, 0xfbfa000024000000U, 0xfece00dce0030000U,
  0x40000000af1f3U, 0xe6fb3e0030f2fbU, 0xd30000ec000000U, 0xaf0014000000001cU,
  0x42000000001500U, 0x3f100e0ec00U, 0x200e0000b1dd0000U, 0xfade002a042b0000U,
  0xc9000000edec2cU, 0x2bf0e100ea1823U, 0xbc0000f8000000U, 0x8100e500000000ebU,
  0xe100000000ec00U, 0x2de00d7b100U, 0x221b0000e9e90000U, 0xfcf000cf0f200000U,
  0xba000000eb17dfU, 0x193eea00f72514U, 0xfc0000e1000000U, 0xc002000000000ffU,
  0xe9000000001100U, 0xff19001ff400U, 0xff0e000044f70000U, 0xfadc00e0f8f30000U,
  0x27000000f50aeeU, 0xf9061f00ee0b05U, 0xd60000ea000000U, 0xec007f00000000feU,
  0x1000000000d00U, 0xfa0100c0d600U, 0xf3290000eff60000U, 0x2040014d8e70000U,
  0xea00000004e32cU, 0x3f5f200dd1ac8U, 0xf30000f3000000U, 0xf100de00000000d8U,
  0x29000000000e00U, 0xf90600f0bf00U, 0xef0f00003bfa0000U, 0x53200ff07f40000U,
  0x1c0000000cf734U, 0xe9d71100d3021eU, 0xf40000db000000U, 0x1600c800000000f4U,
  0x13000000000100U, 0xf9e100e09c00U, 0xf1d1000018e40000U, 0x4f800ed12e10000U,
  0xfc0000002607fdU, 0xd2003c0071dd69U, 0xeb0000ec000000U, 0xf500c700000000dbU,
  0x1f00000000f500U, 0xfc0200d9cb00U, 0x534000018fb0000U, 0xffdd00160dfe0000U,
  0xd100000013ff11U, 0xfdeb04007409dfU, 0x50000fc000000U, 0x4400db00000000f4U,
  0x700000000de00U, 0xfcfa0002dd00U, 0xedc5000050ec0000U, 0xffe300f4eff70000U,
  0x27000000021714U, 0xf0022b0010e47bU, 0xfe0000ea000000U, 0x1b00540000000007U,
  0xfc00000000e700U, 0xfcd900cb0000U, 0xfeed00003bf20000U, 0xebff010000U,
  0xd1000000fcfefcU, 0xf90d2900ddd854U, 0xff0000ff000000U, 0x2900b500000000e4U,
  0xfc00000000ec00U, 0xfd0100efe500U, 0x1008000033ed0000U, 0xfffa0000e81e0000U,
  0xc7000000e2060bU, 0x6fefc0066c465U, 0xf90000fc000000U, 0x5d005f0000000022U,
  0x700000000b600U, 0xfde800011100U, 0xf3cd000028ec0000U, 0xffeb0004f4040000U,
  0xe6000000be181cU, 0x4070700bde140U, 0xf00000d6000000U, 0x2700630000000009U,
  0x800000000d300U, 0xfbf500efea00U, 0xf60c000026fb0000U, 0x40010ddf00000U,
  0xcf000000da0afcU, 0x160a0b00bef7c5U, 0xc0000f2000000U, 0xee00fd00000000ceU,
  0xef000000000700U, 0xfdf700be0800U, 0xeaa00000fef20000U, 0x8f300ecfc0d0000U,
  0xf700000035f201U, 0xffe32c00fff702U, 0xfd0000e1000000U, 0x3002200000000dfU,
  0xf600000000e800U, 0xfffe00f60f00U, 0xd8fb0000ff010000U, 0x6f90010e3100000U,
  0xe9000000f5052bU, 0x16d5ed001526eaU, 0xdc000011000000U, 0xfc00ff00000000a5U,
  0x1500000000d300U, 0xf60010ba00U, 0xd1c1000002170000U, 0x723004bd4f40000U,
  0xfe000000c52c40U, 0x12bbae001518e4U, 0x190000f7000000U, 0xd500020000000001U,
  0xed000000000000U, 0x200a70d00U, 0xe1190000f4f80000U, 0x8e800d2dbf70000U,
  0x41e118U, 0x11243400f7071bU, 0xfc0000f9000000U, 0xe4000500000000e0U,
  0x1800000000e000U, 0xfff900d3f900U, 0xd0f90000fbfc0000U, 0x7d900da0d030000U,
  0xf9000000de1615U, 0x2ee2f900fc450fU, 0xf0000009000000U, 0xef0006000000009fU,
  0x4600000000fe00U, 0xfa00f8cc00U, 0xd7de000015100000U, 0x60600cbf4e90000U,
  0xfc000000ba3b0dU, 0x27d1e500110dfdU, 0x300000ed000000U, 0xdb00ea000000000aU,
  0xec000000002000U, 0x3030025d800U, 0xb06000017f10000U, 0x9c400e1f41f0000U,
  0xfc000000ea24e0U, 0x1421e00efeed6U, 0x300000fc000000U, 0xf7000d00000000a4U,
  0xe00000000fd00U, 0xf500da0b00U, 0x2e2000013fa0000U, 0x8ec00cddc230000U,
  0x5000000871fa8U, 0x24f7000004fc06U, 0xe00000d000000U, 0xe7000d00000000b4U,
  0x2a000000002000U, 0x1d300e4e800U, 0x44d400000e100000U, 0x72f002ff9fd0000U,
  0xeb0000008117c5U, 0xf1f5e50007e304U, 0xd0000ec000000U, 0xec00ff000000000aU,
  0xce00000000e300U, 0x8fc00d3ea00U, 0xd842000027080000U, 0xfee600dde1eb0000U,
  0xf100000043e11fU, 0x1e23300012fdecU, 0x390000e1000000U, 0xeb00fc00000000dcU,
  0x2d00000000ec00U, 0x7e700d81600U, 0xf6ef00000c100000U, 0xe900e3ef180000U,
  0xe3000000ba24e1U, 0x10e6140003f815U, 0x1f0000df000000U, 0xeb00fb00000000baU,
  0x62000000001b00U, 0x6fe00e0c800U, 0xf7ed0000fbde0000U, 0x4100df06ff0000U,
  0x6000000b9cde2U, 0xf4f8e400f803faU, 0x2c0000ec000000U, 0xde00f900000000f3U,
  0xe00000000e400U, 0x71b0028e300U, 0xca0000000d010000U, 0xfde800e3e5ca0000U,
  0xe00000025c71eU, 0x110d2400fae90eU, 0x340000fd000000U, 0xff000400000000cfU,
  0x3b00000000f000U, 0x9ea00e8fb00U, 0x16050000fc080000U, 0x2df00e4f3430000U,
  0xf3000000922aacU, 0x5010800f704faU, 0x180000fc000000U, 0xdf000900000000dbU,
  0x4a000000000d00U, 0xcd000c41000U, 0x10ef000015f30000U, 0x2190046fa2f0000U,
  0x90000008134d1U, 0xc1fd900072ae8U, 0x1d0000e6000000U, 0xce00f700000000cfU,
  0xcc00000000ef00U, 0x70d0024d400U, 0xdaea000025ec0000U, 0xfcd000e706210000U,
  0x1500000012f003U, 0xfc12000cdeebU, 0x250000e4000000U, 0x300fa000000001eU,
  0xd7000000001800U, 0xb0400e90400U, 0x2f0d000027f40000U, 0xfcdb00bad5170000U,
  0xe9000000e8240aU, 0x1dfa08000c2111U, 0x5e0000df000000U, 0xe0000c00000000f7U,
  0xc9000000001f00U, 0xede00b6b300U, 0x340000001ffa0000U, 0xfd56001de6df0000U,
  0xe5000000d4a8f8U, 0x4022e300051b0bU, 0x990000ce000000U, 0xe002d00000000f7U,
  0xde00000000da00U, 0xffff00ee1900U, 0xf11500000e0d0000U, 0xfe1b000be3270000U,
  0xce0000000fe031U, 0xfbfc1b000dd02bU, 0x4900002d000000U, 0x300470000000000U,
  0x5600000000ac00U, 0x2cd00da3200U, 0xd6e10000f2ed0000U, 0xff2d000beb110000U,
  0x2d00000081f0d4U, 0xd94ae400f8d01cU, 0xff00000a000000U, 0xf600fe0000000012U,
  0xa400000000ed00U, 0x21300f6c100U, 0xffe000000ed20000U, 0x2d000dd0b250000U,
  0xf90000000e01fbU, 0xfc1f0c00e8f2e9U, 0xb90000cf000000U, 0x300f50000000031U,
  0xcb00000000eb00U, 0x30e0010d700U, 0xc060000f6170000U, 0xe70016cbe50000U,
  0xfa000000f0bb31U, 0xedce800ff0c2aU, 0x110000ce000000U, 0x8000e000000000aU,
  0x5900000000d600U, 0x6d800dbdb00U, 0x301d0000e7f50000U, 0xff190007e61a0000U,
  0x2800000098cc2aU, 0x2738c40001e0fdU, 0x2d000007000000U, 0xf700e8000000001aU,
  0x1e00000000f200U, 0x10500ede900U, 0x81d000007d30000U, 0x610008c1fdd0000U,
  0xc000000cae7bfU, 0xdd3b0900f5cbfbU, 0xd80000fa000000U, 0x700ee0000000019U,
  0xde000000000500U, 0x1ea001ee100U, 0x11f0000002080000U, 0x2f40002c9dd0000U,
  0xca00000000e61bU, 0x1cd5f200ff280cU, 0xc60000d0000000U, 0x600de0000000026U,
  0xa000000001100U, 0x40000edc300U, 0x24ee0000ff040000U, 0xeb0006caac0000U,
  0xce000000fbdd1dU, 0x2ff9e200fb0cf0U, 0xc0000f3000000U, 0xf200fd00000000ddU,
  0x1900000000f600U, 0xd70004d400U, 0x402000001d70000U, 0x27000d7f7e30000U,
  0xce000000e8e000U, 0x13cf200fcdbdcU, 0xd40000d0000000U, 0x7f00dd00000000bbU,
  0x1c00000000e300U, 0xfcf800d0b100U, 0xff0b0000e90d0000U, 0x4da00e8f1e20000U,
  0xd40000001c001eU, 0x512ff00faeb14U, 0xc30000c3000000U, 0x300d700000000dfU,
  0x12000000002200U, 0xfbf600fd9a00U, 0x15f7000012f30000U, 0x3d900d314df0000U,
  0xd00000001a1807U, 0xed0e2c006ffe3eU, 0xe90000d5000000U, 0xea00ee0000000009U,
  0x900000000fd00U, 0xf9ee00c0ac00U, 0x6f4000014e70000U, 0x6d200dd07f30000U,
  0xdb000000fe0af9U, 0xfd0d220031f7f7U, 0xf3000001000000U, 0x1b00140000000018U,
  0x700000000ec00U, 0xfb0300deee00U, 0xfa130000060b0000U, 0xffe700f5f5eb0000U,
  0xca00000002161bU, 0x15020900b4e96aU, 0xec0000da000000U, 0x26004800000000f2U,
  0x300000000e000U, 0xfbfb00dae200U, 0x80500003ef80000U, 0xf600ecfe000000U,
  0xd5000000c81319U, 0x6160032e26aU, 0xf40000ce000000U, 0xef00c8000000001aU,
  0x300000000e200U, 0xfaf000fcc000U, 0xf000031f90000U, 0x40100f51ce40000U,
  0xd7000000fffbf0U, 0x190927006df1fbU, 0x5000005000000U, 0x20005d0000000049U,
  0xe100000000c900U, 0xfbff00f71000U, 0x70000f5f20000U, 0xffe70008f90c0000U,
  0xe6000000d31902U, 0xb00d300d3ef17U, 0xfc0000ea000000U, 0xc006e0000000019U,
  0xa00000000d700U, 0xfcfd00d10e00U, 0xff29000015f50000U, 0xfefe0015e8080000U,
  0xeb000000a40afcU, 0x170ce400bdddfdU, 0xed0000db000000U, 0xa00240000000009U,
  0xf500000000db00U, 0xfcfc001bd900U, 0xdf2100002bed0000U, 0x140015cfe50000U,
  0xd3000000db07e9U, 0x1906ee0018f065U, 0x8c0000d0000000U, 0xf100f700000000dfU,
  0x1300000000ee00U, 0x30600dcd500U, 0xf7140000f6f30000U, 0xfdef0020c6010000U,
  0xef0000000be721U, 0xecea19000ff4d5U, 0x49000024000000U, 0xcb00f900000000d9U,
  0x7000000000e500U, 0x2d100eb2600U, 0xeef10000fee40000U, 0xfd3600e4f9070000U,
  0x20000009debe0U, 0xf44aba00db0bceU, 0xa000001000000U, 0x900f6000000001bU,
  0x8100000000e800U, 0xff1700daf000U, 0xf7f00000f6e60000U, 0xffc300dce1f30000U,
  0xfd000000172900U, 0xf821260014ebfaU, 0x970000c7000000U, 0xfa00ef000000001cU,
  0x2e000000001400U, 0x71f0019e200U, 0x4fb00000afd0000U, 0xfbe3001ae6b30000U,
  0xfe00000001e034U, 0xfad4e400080100U, 0x29000000000000U, 0x8f00fa00000000feU,
  0x2900000000ef00U, 0x8b800a1fc00U, 0x29030000d0eb0000U, 0xfc390026e0240000U,
  0x8f000000cbf412U, 0x2328c100f916cfU, 0x17000003000000U, 0xf500ef00000000f2U,
  0xb000000000ef00U, 0x318000fb700U, 0xff080000f2f50000U, 0xfdee00d208f00000U,
  0xe1000000fb1bd9U, 0xf52d14000c04feU, 0xe30000e7000000U, 0xd00fb0000000018U,
  0x14000000001900U, 0x605000fea00U, 0x9e80000fc060000U, 0xfcfa0006feec0000U,
  0x11000000faf11bU, 0x17d5f200fef20aU, 0x20000e2000000U, 0x8c00150000000003U,
  0xdd000000001300U, 0xad900d2ce00U, 0x17fd00009efb0000U, 0xfb10001bf32c0000U,
  0xd4000000feff0aU, 0x1cf9eb00fc1121U, 0xe10000d9000000U, 0xeb000200000000d1U,
  0xe700000000f900U, 0x5ec001ab300U, 0x70d0000e6f80000U, 0xfde300f427fe0000U,
  0xf600f0U, 0x2170f00191106U, 0xe90000ce000000U, 0xc00eb00000000e7U,
  0xdf000000002800U, 0xfe0500b19300U, 0xb9e0000e9db0000U, 0x72500e3cfe90000U,
  0x9000000e657f9U, 0xe1eef30011f6e5U, 0xdf000000U, 0x1500f80000000006U,
  0xdc000000001f00U, 0x50c00ebcd00U, 0xefce000001d20000U, 0x30300e7c7dc0000U,
  0xe30000003617f5U, 0xe8fde7000bf3fbU, 0xf40000d4000000U, 0x34000c000000002dU,
  0xd3000000000d00U, 0x7fa00eabe00U, 0x2af80000f2e20000U, 0x20600f7ffe90000U,
  0x120000003ed924U, 0xdafe3f00f3e207U, 0x31000016000000U, 0xf8000000000000e0U,
  0x59000000000400U, 0x1e500aaf800U, 0x11af0000d5010000U, 0x53400250de40000U,
  0xee0000008159eaU, 0xf0cbe000110300U, 0xe700001b000000U, 0x1b00cd00000000e6U,
  0x2200000000f100U, 0x40f00f82c00U, 0xeff30000dfef0000U, 0x23f0019dfe90000U,
  0xea000000fee3e3U, 0xe0cfb100f0e2c9U, 0x25000002000000U, 0x3000e10000000046U,
  0xd600000000f600U, 0x50100d93400U, 0xaec0000d8ed0000U, 0x1500e9f6c30000U,
  0xf800000043a620U, 0xd4184d00eac92dU, 0x670000f9000000U, 0x1e00ef00000000b9U,
  0x4900000000d900U, 0x4e900a3e500U, 0x47c00000bff10000U, 0x1e004be7440000U,
  0xac0000009034daU, 0x1535d400f622f7U, 0xcc0000f3000000U, 0xeb00cb00000000e0U,
  0x4300000000eb00U, 0x6f9000fec00U, 0xfdde0000edec0000U, 0xff57003d22e80000U,
  0xee000000dd2a23U, 0xbcba80010f5f0U, 0x20000ff000000U, 0x1800d60000000031U,
  0xfb00000000c800U, 0x50f0011e000U, 0xfad80000c8de0000U, 0xfd63001af0e50000U,
  0x1200000014b205U, 0xdf0af7000cecf6U, 0x2b0000cc000000U, 0xf800fa0000000041U,
  0xf400000000d400U, 0xfc1b001ee700U, 0xe7210000fa100000U, 0xfab900dfa68f0000U,
  0xd8000000cb2ce9U, 0xfe002e00ecf1e6U, 0xb40000ef000000U, 0xd000e30000000040U,
  0xaa000000002c00U, 0xfb1500e5b000U, 0x13db000002e00000U, 0xfae200efc39b0000U,
  0xee0000002e0659U, 0x9e0b31002820fbU, 0xde000013000000U, 0xdc00f9000000006aU,
  0x31000000006f00U, 0xfdeb00bbda00U, 0xb9e30000fbaf0000U, 0xfb27004ef7cf0000U,
  0xfe00000047fb1fU, 0xb0f7f70005ede8U, 0x540000ce000000U, 0xdd00f300000000f3U,
  0x7000000001800U, 0xfd2a00421700U, 0xd2fa0000e70c0000U, 0xfda300cdf9040000U,
  0xf0000000fe3ee5U, 0x421f3000ca51ccU, 0xde0000ce000000U, 0x900e9000000001fU,
  0xc600000000e000U, 0xfd1800f3b700U, 0x75010000d6cb0000U, 0xfddf00e6f7010000U,
  0xee000000eceef0U, 0x894b440014ccedU, 0xc000001000000U, 0x3000a000000002fU,
  0xe5000000004800U, 0xfe0b0001d400U, 0x43e50000b1ba0000U, 0xfb1c002943d60000U,
  0xfc000000080c42U, 0x9d06050003ca02U, 0x140000ed000000U, 0xd100f500000000a5U,
  0x3000000002700U, 0xfe0c001fe400U, 0x8701000010f80000U, 0x1ce00cfbc120000U,
  0xf2000000c322e7U, 0x55263400ea7fd5U, 0xeb0000f4000000U, 0x22001300000000caU,
  0xe800000000ee00U, 0xfcf200ded200U, 0xfc050000f6de0000U, 0xffe800f0da190000U,
  0xea000000b1fcedU, 0x3b11080010ec0fU, 0xfc0000f9000000U, 0xd000a0000000035U,
  0xd200000000d700U, 0xfed50010ce00U, 0xe9220000f3b10000U, 0xfafb00e50ef40000U,
  0xf4000000c1f00dU, 0xa0e9c00002c71aU, 0xea0000eb000000U, 0xd600e40000000017U,
  0xe1000000001400U, 0xfafd00d5d700U, 0x4d0c0000faf50000U, 0x1f000d200af0000U,
  0x9000000070b31U, 0xf6500600ff420dU, 0xcc0000db000000U, 0x1600e800000000d3U,
  0x22000000004600U, 0xfa09000ef200U, 0xc3020000c6e90000U, 0x5ca00eae7ca0000U,
  0xf500000002e946U, 0x31082100e732f1U, 0xfd000011000000U, 0x100e4000000000fU,
  0x32000000002800U, 0xfd0800f90700U, 0xd1fd0000b9e00000U, 0x53a0017d3e50000U,
  0xe000000004e100U, 0xfb1aff00ead8d0U, 0xee0000ec000000U, 0xeb00f600000000f0U,
  0xe800000000f800U, 0xfcd00081e400U, 0x47ef0000eef90000U, 0xff0b00f8f7010000U,
  0xea000000e0ef01U, 0xe73af700ee12e4U, 0x130000e1000000U, 0x1400e90000000016U,
  0x1d00000000f700U, 0xfdda00e6e700U, 0xc7e40000cd080000U, 0x1f500fbffc60000U,
  0xf4000000ebe32eU, 0x3cefda00dd23feU, 0xf30000ed000000U, 0x1000300000000f3U,
  0x2000000001c00U, 0x1140026da00U, 0xb4f00000990d0000U, 0xfe200016f4e60000U,
  0x8c0000000ce71aU, 0x3afef800f10106U, 0xe500000a000000U, 0x4c00f700000000e9U,
  0xea00000000f900U, 0x1eb00a80000U, 0xd0df000025070000U, 0xfd0e0010fb090000U,
  0xc000000cbecdfU, 0xcbecea0001e90aU, 0x2b000005000000U, 0x27001500000000faU,
  0x500000000f800U, 0x2e000b60100U, 0xde0d00003f060000U, 0xfe1800f3f71d0000U,
  0x21000000eeffddU, 0xf8bfec0006de0cU, 0xf40000f3000000U, 0x3000000000000dbU,
  0xe900000000e300U, 0x1eb0014e600U, 0xd0e30000d0130000U, 0xfee100f1190f0000U,
  0xf4000000def907U, 0x2bbcfa0007e806U, 0x550000e2000000U, 0xeb00e000000000c9U,
  0x4100000000fa00U, 0x3f700d70c00U, 0xe2030000fc020000U, 0xfcca00d5e5410000U,
  0xf3000000caaad4U, 0xf8f9fb0001e104U, 0x300000ef000000U, 0xf8000a00000000dcU,
  0x48000000000e00U, 0x3ed00d90b00U, 0x35e10000efef0000U, 0xfa3a0005170c0000U,
  0xfd000000bfede4U, 0xee2fe800f61b15U, 0x900000b000000U, 0xfd00fe0000000047U,
  0x4000000000000U, 0x2fa00dee800U, 0x7e30000f5f50000U, 0xf9540026e1d80000U,
  0xe500000028b712U, 0xf0090b001eeefcU, 0x360000e5000000U, 0xfc00dc00000000fbU,
  0x48000000001900U, 0x8f400f8f700U, 0x30f80000e9e90000U, 0xfc810056ff400000U,
  0xf0000000be38fcU, 0xfcffdc00ef13faU, 0xcc0000fe000000U, 0xeb00060000000013U,
  0x33000000000400U, 0x8e100ddde00U, 0x32fd0000f5f00000U, 0xf92e003ce81f0000U,
  0x4000000e02ff6U, 0x2312d100f923f4U, 0xe4000009000000U, 0xe500d50000000012U,
  0xcb00000000eb00U, 0x40d0004af00U, 0xfb050000e7ed0000U, 0xf8fa0030fcd90000U,
  0xe70000000dec04U, 0xfa120b001af0feU, 0xb00000f0000000U, 0xf900f3000000001eU,
  0x34000000002300U, 0x8f800ccdd00U, 0x3ce10000e9f00000U, 0xfb7200cddcce0000U,
  0xec000000d95105U, 0x27f2e000f829f8U, 0xef0000f0000000U, 0x3000000000cU,
  0xdc000000001400U, 0x9f400f4ac00U, 0x1d080000fcf10000U, 0xf8e00007ea080000U,
  0xfe0000000c02f9U, 0x2401e900fc110bU, 0xed0000e3000000U, 0x1600010000000004U,
  0xd5000000000700U, 0x5000019bd00U, 0x6070000d5ef0000U, 0xf8ef00df0dee0000U,
  0xfa000000fcf303U, 0x70e0c00150513U, 0x160000f3000000U, 0xdd000500000000f5U,
  0x42000000000f00U, 0xffdc00e70000U, 0x14cc0000f6f50000U, 0x149003c06010000U,
  0xb00000003de1dU, 0xf8dfe200f8df17U, 0x3c0000f0000000U, 0x600f900000000d0U,
  0x2c00000000de00U, 0xfb120020f300U, 0xebef0000fe080000U, 0x2e800ee02e60000U,
  0xf10000000109faU, 0xfde50100f3e3fdU, 0xb20000f4000000U, 0x1600ec00000000d3U,
  0xcb000000000e00U, 0xf91200ebe400U, 0x4d20000fc010000U, 0x1de00d7dfeb0000U,
  0xe3000000ea14f2U, 0xea073d0006e0deU, 0xfd000000U, 0xde00fd00000000e0U,
  0x1000000003d00U, 0x2f300c60e00U, 0x10d400000ff30000U, 0xaa0038f22b0000U,
  0x1c00000004da17U, 0xcbc6e3000b02dcU, 0x16000006000000U, 0x1400ee00000000e7U,
  0x2800000000eb00U, 0xfdef00e51600U, 0xcfc60000e2fd0000U, 0x2e500eafc140000U,
  0x7000000bce4cfU, 0x2ffac000ff3de7U, 0x1a0000f4000000U, 0x1800f20000000081U,
  0xa000000000d00U, 0xfbf100bae700U, 0xd30700000f070000U, 0x2da00ffe7f30000U,
  0xce000000e229d5U, 0x26433d0010fefcU, 0xe10000fd000000U, 0xfa000000000000d1U,
  0x16000000001e00U, 0xfdec00cae200U, 0xbd80000f0e50000U, 0x15f00fc0fef0000U,
  0x150000000f0215U, 0xcfe6ee000bf8f3U, 0xf5000005000000U, 0xf000b00000000aeU,
  0xfa00000000e700U, 0xfbf900bc0700U, 0xaeec0000fafc0000U, 0x3ef00eb0df30000U,
  0x17000000d3fff7U, 0x2fdaeb00053e03U, 0xdf000007000000U, 0x1900f900000000a3U,
  0x900000000e600U, 0xfcf400e0ef00U, 0xcde40000fe060000U, 0x3f200e7ea3e0000U,
  0xf9000000aefae1U, 0x571ad700fb16ffU, 0x310000d9000000U, 0xef00f300000000e2U,
  0xb00000000ef00U, 0xfef900cb0500U, 0xfbfc000002f60000U, 0x6e900e7edf40000U,
  0xe700000007ddf4U, 0xf5050b0001efccU, 0x1f0000e0000000U, 0xee000900000000ffU,
  0x900U, 0xfe0000dcd900U, 0xe5100000ecf40000U, 0x2d70003fe050000U,
  0xe8000000f527e9U, 0xf5eaf60010f301U, 0x380000f1000000U, 0x1e00e10000000020U,
  0x2b00000000fb00U, 0xf400ea2000U, 0xf8f20000ec0f0000U, 0xfc2000f617050000U,
  0xfb0000001a81fbU, 0x211040007f81fU, 0x2b0000f6000000U, 0xff00e900000000deU,
  0xdf00U, 0xfffe00ea1500U, 0xe303000000f50000U, 0x3cd00de0e230000U,
  0xe0000000ee08efU, 0xf2020100ee03e4U, 0xd70000f1000000U, 0xdb00f800000000ceU,
  0x2d000000003f00U, 0x300eab700U, 0x2bce0000f0fb0000U, 0xfe1a003cf9220000U,
  0xec000000e549e9U, 0x13e7ff00121604U, 0xfd00000a000000U, 0x2200dc000000001aU,
  0x400000000ec00U, 0xff001e0500U, 0xeadb00000bf30000U, 0xfc15000bdafb0000U,
  0xf00000014cef8U, 0xfb1add00e80ae3U, 0x160000fc000000U, 0x2500f800000000c2U,
  0xfe000000001400U, 0x20400f0fa00U, 0xff20000f3f20000U, 0x1df00f3e0220000U,
  0xf9000000dae0d6U, 0x81304000721ebU, 0xdc0000ec000000U, 0xe8000900000000bbU,
  0x1b000000002400U, 0x3f50008c100U, 0x3daa000008fa0000U, 0xfc130031d3e50000U,
  0xf000000013bdeU, 0x18ecec000f2e07U, 0x3000001000000U, 0x2d00ef000000000bU,
  0xe700000000e400U, 0x10700fded00U, 0xf2ea00001ee10000U, 0xfef900f6fcdb0000U,
  0xd00000008dc09U, 0xde120f0003fa03U, 0xd50000e0000000U, 0xed00d20000000004U,
  0xd6000000000600U, 0x10f0015e600U, 0xdd70000019fe0000U, 0xfff500fade130000U,
  0xde0000002fc50eU, 0xfeec33000104d2U, 0x50000ed000000U, 0xe7003d00000000acU,
  0x4800000000c400U, 0xe800e03a00U, 0xc5f1000009f80000U, 0x3210003f9340000U,
  0xb50000008efe34U, 0x1db0d900db3919U, 0x1b0000f7000000U, 0xda0019000000009bU,
  0x2100000000da00U, 0xdb001af700U, 0xf6b7000013050000U, 0x92c003dd1180000U,
  0xd8000000870ae2U, 0x19e6cb0035ecd8U, 0x2e000003000000U, 0xca00f500000000ffU,
  0xfe000000000200U, 0x21600200900U, 0xdb0f000008e30000U, 0x1dc0005f2d80000U,
  0xf400000015d013U, 0x140d2900e34d0cU, 0x3c0000e9000000U, 0xe800190000000001U,
  0x2b00000000bf00U, 0x30004ce00U, 0xeced00002cf80000U, 0x5e400e1f71a0000U,
  0x19000000c3e10aU, 0x4ffde700eb2405U, 0x340000f3000000U, 0xe300e50000000081U,
  0x2300000000e700U, 0xdf00cdcd00U, 0x31060000f0ef0000U, 0xddd00d70b0b0000U,
  0x1900000090e5abU, 0xf551e100dec000U, 0x2f000016000000U, 0x7000f00000000c5U,
  0xec000000000100U, 0x6180005cb00U, 0xdbd5000044ed0000U, 0xe000cfff130000U,
  0x280000001b16c7U, 0x264e0d00f836daU, 0x1b0000f4000000U, 0x29001300000000c8U,
  0xf2000000000c00U, 0x405000dc700U, 0x2fd2000038e00000U, 0x5e800c2f20c0000U,
  0xf4000000eb12d4U, 0x21031100e8d5c8U, 0xe0000f6000000U, 0x1d002c000000008cU,
  0xe7000000003100U, 0xd600d2ef00U, 0x4eef0000d8ed0000U, 0xdc900b6fcfd0000U,
  0x17000000bc0cb7U, 0xd42b1300d0be3cU, 0xa70000e6000000U, 0xfc002e00000000f9U,
  0xde000000000300U, 0x20b000ac200U, 0xfd0c000009050000U, 0xfd06000be8bb0000U,
  0xf40000000cf609U, 0xf60200140ff9U, 0x810000e9000000U, 0xf200e00000000004U,
  0x1200000000ff00U, 0x4030000cc00U, 0x1213000008f20000U, 0xfe390008ca9a0000U,
  0xf40000001ef126U, 0xfbe1e900ea0cc4U, 0x1000011000000U, 0xfb002c000000000dU,
  0x3300000000e300U, 0x2e000e21900U, 0xe3ec000005010000U, 0xfe60001aeb030000U,
  0x3000000ffe018U, 0xf900c200e9e8d1U, 0x4b0000f7000000U, 0xe6000500000000ffU,
  0x3900000000e400U, 0x500011d00U, 0xe9e60000e6000000U, 0xfee200eef6be0000U,
  0xfb000000e1f6ffU, 0x104e300e7071eU, 0xf00000ee000000U, 0xf100f7000000000dU,
  0xa7000000002200U, 0x50000f1c400U, 0x18f8000008fd0000U, 0xffdf00f5eac20000U,
  0xe400000004e120U, 0xdebf300110efcU, 0xf00000d6000000U, 0xf000e60000000022U,
  0xc1000000002b00U, 0x5e600f5d100U, 0xd0900000aff0000U, 0xfdd2003ae5f50000U,
  0x15000000fcec25U, 0xbebcd000afe22U, 0x510000fa000000U, 0xf00fc00000000e2U,
  0x1300000000dc00U, 0xf900010300U, 0x2f10000ebec0000U, 0xffc800b7fb260000U,
  0xe000000d201e2U, 0x132f700061cdeU, 0x3000002000000U, 0x2e00f200000000faU,
  0x90000000000500U, 0x2fd00fbe500U, 0x17010000dfe60000U, 0x2b000d10b0e0000U,
  0xee000000ef18ebU, 0x91a2800fd0ed2U, 0xef000002000000U, 0xa00000000fdU,
  0xb5000000002d00U, 0x30500dbdf00U, 0x3af4000013ed0000U, 0xfeb200cfdd130000U,
  0xfc000000dffe06U, 0x13e911001412ffU, 0x0U, 0x0U,
  0x0U, 0x0U, 0x0U, 0x0U,
  0x0U, 0x0U, 0x0U, 0x0U,
  0x0U, 0x0U, 0x0U, 0x0U,
  0x0U, 0x0U, 0x0U, 0x0U,
  0x0U, 0x0U, 0x0U, 0x0U,
  0x0U, 0x0U, 0x0U, 0x0U,
  0x0U, 0x0U, 0x0U, 0x0U,
  0x0U, 0x0U, 0x0U, 0x0U,
  0x0U, 0x0U, 0x0U, 0x0U,
  0x0U, 0x0U, 0x0U, 0x0U,
  0x0U, 0x0U, 0x0U, 0x0U,
  0x0U, 0x0U, 0x0U, 0x0U,
  0x0U, 0x0U, 0x0U, 0x0U,
  0x0U, 0x0U, 0x0U, 0x0U,
  0x0U, 0x0U, 0x0U, 0x0U,
  0x0U, 0x0U, 0x0U, 0x0U,
  0x0U, 0x0U, 0x0U, 0x0U,
  0x0U, 0x0U, 0xce0000cc000000U, 0xe800e000000000bfU,
  0xe7000000003000U, 0xf225000fb100U, 0x38c60000e7f60000U, 0x1d500c3b6aa0000U,
  0x10000002edc43U, 0x211c3a00d86504U, 0xae0000cf000000U, 0x400d70000000043U,
  0x14000000006500U, 0xf5e900e1e900U, 0xacdc0000eccb0000U, 0x4ea00cae2dd0000U,
  0xd9000000f5de85U, 0xcb1a32000ef9feU, 0x37000003000000U, 0x18001e000000003dU,
  0x3d000000000200U, 0xf9d000b01c00U, 0xbe600000e8f30000U, 0x3660034f0120000U,
  0xd7000000eeea8dU, 0xd1010600f5b8e8U, 0xf80000d3000000U, 0xf900cf00000000eaU,
  0xf3000000005c00U, 0xf1df00f0d000U, 0x59dd0000e2f20000U, 0x1f500cbe5d50000U,
  0xf00000004f041U, 0x4d4c3700dc4bdbU, 0x1d0000f6000000U, 0xf000e50000000034U,
  0xf6000000003000U, 0xf8e7000fc900U, 0xe2b80000ecec0000U, 0x3f200e901ce0000U,
  0xe9000000f3eed8U, 0x21fefe00fed010U, 0x23000010000000U, 0xc0028000000000fU,
  0xf000000000db00U, 0xfa2a001e0b00U, 0xa80b0000210b0000U, 0x21b005aeefa0000U,
  0xfa000000fbccbcU, 0xd2e6c800fab0ebU, 0xf70000e0000000U, 0x1e00e600000000edU,
  0x14000000001300U, 0xf5b20081fb00U, 0xe1ee000017ec0000U, 0xfd0600f5f6200000U,
  0x16000000bf111dU, 0x360ce6000cd705U, 0xf70000f9000000U, 0x19002d00000000deU,
  0xf100000000c200U, 0xf8d50009ec00U, 0xd8d20000e9f60000U, 0x2fb00171b120000U,
  0x1000000e302e3U, 0xc8cabd0000dd41U, 0x24000006000000U, 0xf7001800000000f5U,
  0x2200000000ea00U, 0xf9090049ff00U, 0xd4c7000029080000U, 0x4ed000103f60000U,
  0xf2000000c807e5U, 0xcad4ca00f1e3faU, 0xaa00000c000000U, 0xfd000b00000000fdU,
  0xc200000000eb00U, 0xf9f900eee400U, 0xdc2e0000fee60000U, 0xfaea00fdd3f90000U,
  0xe9000000e607e5U, 0x3f6e60019e0ffU, 0xc800000a000000U, 0xf5000d00000000eaU,
  0xcd00000000e300U, 0xf50c00e6c500U, 0xe308000010de0000U, 0xfde30006c9da0000U,
  0xe400000000f9e3U, 0xe7f5e10006ddf5U, 0xfe0000f9000000U, 0xdd00f30000000025U,
  0x4000000000f300U, 0xf5f500d1d800U, 0x16df0000fa0c0000U, 0xfe1600fff9c90000U,
  0xdc000000440230U, 0x392b1a00e000f0U, 0x20000e5000000U, 0x5000100000000eaU,
  0xec00000000f400U, 0xfa1c0034e500U, 0xf6fb0000f40e0000U, 0xf8e300ebdbc90000U,
  0xe500000018ec41U, 0x262d1300c41bf6U, 0xcd0000e5000000U, 0xe200eb0000000025U,
  0xe8000000001400U, 0xf90700e9f000U, 0x6ce0000e4ed0000U, 0xfbfe0009e8d30000U,
  0xf50000000fe2e8U, 0xf90f1300fbf6f7U, 0xff000004000000U, 0xe200e8000000003eU,
  0xf8000000001000U, 0xf9c800c10700U, 0x2d0f000023e80000U, 0xfd3c004109e30000U,
  0x19000000f5f4f9U, 0x81001e00f934f5U, 0x210000d3000000U, 0xf700e800000000f8U,
  0xe8000000002700U, 0xf8e80020eb00U, 0x42f10000d6ea0000U, 0xfbdc00d3e9fa0000U,
  0x9000000eb0c33U, 0x2e253400f750efU, 0xf30000e9000000U, 0xf700fb00000000feU,
  0xdd000000004100U, 0xf9f60008db00U, 0x3ee00000efdf0000U, 0xfbde00e9f7e10000U,
  0xf9000000aadf93U, 0x11270d000604f9U, 0xff0000ed000000U, 0xa00140000000020U,
  0xde000000003f00U, 0xfc0100f10200U, 0xcb17000016f90000U, 0xfb060021fff40000U,
  0x15000000b3e9daU, 0xc0fc0f00efd707U, 0x240000db000000U, 0xf300010000000010U,
  0xed00000000e300U, 0x10800d9ed00U, 0xee090000f5ec0000U, 0x1ec00eae9f40000U,
  0xe9000000fdcf05U, 0xee06fa000cfef8U, 0xe70000e4000000U, 0x700fb00000000f5U,
  0xf00000000ea00U, 0xfe0100d7f400U, 0xf2050000ffef0000U, 0xfe0a00f004ce0000U,
  0xf000000007d807U, 0xff0a0800f9f2fdU, 0x150000f1000000U, 0xe400ef000000000fU,
  0xf700000000fa00U, 0xfa00e1fd00U, 0xf6e60000edf80000U, 0xfc0400fe0ac20000U,
  0xf8000000037ff1U, 0xafa0300f3f4ffU, 0x660000f7000000U, 0x500ef00000000f7U,
  0x2000000000e00U, 0x30200fff100U, 0xf1fe000000f40000U, 0xffaa00050a3b0000U,
  0xef000000dbd1e6U, 0xf9f8fc00fe08f5U, 0x60000ea000000U, 0xef00ee00000000f7U,
  0x28000000000d00U, 0x300fdd300U, 0x4f2000005f70000U, 0xfa3c001af2c50000U,
  0xe8af1U, 0xfafefb000a0604U, 0xf90000f4000000U, 0xe800cf000000000bU,
  0xfe00000000ec00U, 0x1ef0005e400U, 0xafa0000fbf90000U, 0xf80e0015dfcb0000U,
  0xf5000000095aefU, 0xefe0600f201ecU, 0xe1000004000000U, 0x2200dd00000000daU,
  0x17000000002200U, 0x3f20006d200U, 0x1cda0000e9eb0000U, 0xfdd90042df360000U,
  0xf6000000d850d6U, 0x11ee0600ff27ddU, 0xe7000004000000U, 0xf600f40000000003U,
  0x9000000001b00U, 0x3fb00fee700U, 0x16d700001ceb0000U, 0xf811002ccff50000U,
  0xf900000000d1ebU, 0xf9e4c800050d00U, 0xf70000e2000000U, 0xe700f9000000000cU,
  0xdf00000000f500U, 0x30a000df900U, 0x705000005fa0000U, 0xf8fe0012f9e30000U,
  0xfd000000fbe807U, 0x1050500ffeb13U, 0x170000e8000000U, 0x5000a00000000f4U,
  0x200000000ef00U, 0x1fd00fefa00U, 0xe11f000001f70000U, 0xfdee00efdfee0000U,
  0xe7000000fc00f5U, 0xf900280012d30bU, 0xa00000f0000000U, 0xfa00ea00000000dfU,
  0x8100000000e700U, 0xfe0600cdf400U, 0xeff80000fbea0000U, 0xfcdc00f3dbe50000U,
  0xf0000000f200e7U, 0xdc03db000df7c7U, 0xf90000f3000000U, 0xf000010000000030U,
  0x2200000000d800U, 0xfefd00cad600U, 0x1ee80000f2de0000U, 0xfaf900f31dd00000U,
  0xf50000001e221fU, 0xdf1e1200eed9fbU, 0x3d0000ed000000U, 0xde00ee00000000f0U,
  0xfd00000000fa00U, 0x10f002a1600U, 0xcc05000006060000U, 0xfbc400dff6230000U,
  0xf4000000f40f29U, 0x180d1300d524daU, 0x1b0000e2000000U, 0xee00ab0000000004U,
  0x30000000001900U, 0xff0900089300U, 0x30e70000fef90000U, 0xfafa001ce5030000U,
  0xed0000001e3d13U, 0x23091c00dc17c3U, 0xf9000003000000U, 0xed00d60000000023U,
  0x1a000000001d00U, 0x2f90004e400U, 0x21e70000e0e10000U, 0xf7440031f3e50000U,
  0xf000000004f01aU, 0xcd1e2400e4d6ebU, 0xfb0000f4000000U, 0xaf00dc00000000feU,
  0xfa00000000c600U, 0x1ff00260000U, 0xd5ed0000e8000000U, 0xfbdb00e2d12b0000U,
  0xf6000000f42322U, 0x2c1a2200f353eaU, 0xe10000fa000000U, 0x1600b100000000fbU,
  0xe000000003400U, 0x1eb00f9b100U, 0x42e8000011ef0000U, 0xf9da0038ed020000U,
  0xf0000000cc1dd9U, 0x2ddcd700ff01e0U, 0x80000ff000000U, 0x1100e3000000000eU,
  0xd5000000002c00U, 0x2ec0010f100U, 0x27030000c2e80000U, 0xf71d002404ee0000U,
  0xe7000000fed9e7U, 0xbde31100f4df00U, 0xe900001a000000U, 0x2100f500000000e3U,
  0x1600000000f400U, 0xfdf000db0700U, 0xa100000eef50000U, 0xfee400f300e60000U,
  0xf70000000708ddU, 0xf4ec0900c21544U, 0xa00001f000000U, 0x2f004500000000efU,
  0x1a000000000700U, 0xfa00f3f100U, 0xe2f00000bcfa0000U, 0xfbf400dccbb00000U,
  0xf9000000f4d6f2U, 0xddf01b005f060aU, 0x3c0000ec000000U, 0x10004c00000000c6U,
  0xf200000000f900U, 0xfefc00eb0800U, 0xe5ed0000460b0000U, 0xfb1300e8e2d10000U,
  0xcb000000f5ea00U, 0xffe8130025f7faU, 0xaf000004000000U, 0x44008100000000afU,
  0xd9000000000900U, 0xfefe0001ee00U, 0xf6050000fee10000U, 0xfcf0001a07c40000U,
  0x200000019f016U, 0xe9f709002f0a33U, 0xdd0000fb000000U, 0x2c008100000000baU,
  0x2700000000fd00U, 0xe900e32500U, 0xcdf300000eec0000U, 0xf92a0015cd210000U,
  0xc000000e3e9f7U, 0x97d6c40012cecdU, 0x39000001000000U, 0xe000d400000000fbU,
  0xdd00000000df00U, 0xfffa000f1300U, 0xd4c900005afe0000U, 0xfa3d0002c7020000U,
  0x2000000e2f0cdU, 0xf4d6dd00e7e5d5U, 0xd90000e9000000U, 0x3700b1000000001cU,
  0x500000000f300U, 0x10b0008d900U, 0xfcfd0000f2000000U, 0xfd020015f6f20000U,
  0x24000000ffef24U, 0xf3f80016070dU, 0xd60000d6000000U, 0xd900ef0000000021U,
  0x2a000000000e00U, 0x5ef00dadc00U, 0x13f60000d0f30000U, 0xfb270042e03b0000U,
  0xf4000000f4fe1aU, 0x1a16d100ebdcd1U, 0xa0000e5000000U, 0xb600d40000000000U,
  0xd800000000f600U, 0x6fc000af600U, 0x1418000004fa0000U, 0xf92b002b0d270000U,
  0xf6000000fee4e4U, 0xa3ee900550ed3U, 0xfc000002000000U, 0xdb00e900000000e5U,
  0x39000000005f00U, 0x1e700b1a800U, 0x3fc50000c9f00000U, 0x43004409eb0000U,
  0xf30000001a1d15U, 0xc7c1c200ebd1e3U, 0x1d000016000000U, 0xe0000400000000dcU,
  0xf100000000c800U, 0xfdf300ef1900U, 0xedf300000b060000U, 0x2e0030e4330000U,
  0xee000000d9dfcbU, 0x4e1ca00f2e6eaU, 0x390000ff000000U, 0xe300df00000000b4U,
  0xf00000000ed00U, 0xfb00f70600U, 0xd7e90000f9030000U, 0x2df0010d43c0000U,
  0xeb000000d02dbdU, 0xe2e1500f549f4U, 0xfe0000fc000000U, 0x4000e00000000f4U,
  0x1d000000006700U, 0x7e700c2d100U, 0x56d50000dee70000U, 0xfec9003dfeeb0000U,
  0xb000000c4e5f9U, 0xa9b7c40003b2f7U, 0xe50000f7000000U, 0xea000900000000e1U,
  0xdf00000000f500U, 0x1f200cd0d00U, 0xe2ed0000dcfe0000U, 0xe20004fd040000U,
  0xf000000d707e7U, 0x8d7cd0009ee1aU, 0x810000ef000000U, 0xe9001600000000b9U,
  0x2d00000000f900U, 0x3f800c0ef00U, 0xabde0000effe0000U, 0x1f000c0fbef0000U,
  0xd0000008613a8U, 0x38f2dd00186919U, 0xd30000fe000000U, 0xe5001900000000feU,
  0x14000000001500U, 0x5e700cdc400U, 0x39ca0000dad90000U, 0x7300cb02e30000U,
  0x19000000f6182bU, 0xc2e6e00005d8faU, 0xf20000e4000000U, 0xf80007000000000eU,
  0xfb00000000de00U, 0x3ef00f70c00U, 0xf2040000d6f60000U, 0xff000015130c0000U,
  0x3d000000d4f6faU, 0xa07ea00fbeefeU, 0x2c0000d3000000U, 0xeb000c00000000bfU,
  0x100000000db00U, 0x4fa00e41100U, 0xd6ff00000b080000U, 0x1c200f1fe2d0000U,
  0x12000000d11adcU, 0x184406000a4fe8U, 0xe800000a000000U, 0xfe001500000000b7U,
  0xe9000000001600U, 0xf9d800b2f400U, 0x12b20000f3080000U, 0x9ee0001b11f0000U,
  0xc10000003612e9U, 0xeff0d800fbfaf2U, 0xef0000ee000000U, 0xfc003200000000bcU,
  0xf600000000f400U, 0xfaea00ed0300U, 0x1ff00000fe270000U, 0x3f7000de0170000U,
  0xee0000004f1f10U, 0xd5e5180011e433U, 0xff000004000000U, 0x1300170000000061U,
  0x1500000000ec00U, 0xfded00ec0000U, 0xf9050000fcf80000U, 0x216001c1bf20000U,
  0xe7000000dc15f6U, 0xedf723001ff9ffU, 0x1000018000000U, 0xd200f30000000000U,
  0xdf000000000400U, 0xfce600c62200U, 0x7d70000ea0b0000U, 0x7ef00f0cae00000U,
  0xcb00000035d6d8U, 0xdbebd10003e7dbU, 0xe90000d0000000U, 0xf100f800000000d7U,
  0x1800000000e200U, 0xff00f22400U, 0xe340000d2100000U, 0x1f0007da170000U,
  0x400000017c11dU, 0xf5dee400dbe22dU, 0xf1000001000000U, 0xfb0025000000007fU,
  0x1800000000df00U, 0xfffc00cbff00U, 0xfb4f0000e4ee0000U, 0x235002728ff0000U,
  0xf7000000d5e820U, 0xe9edf80005ecf7U, 0xeb000017000000U, 0xef00ea0000000037U,
  0xe900000000f800U, 0xfcf300c3fb00U, 0x11cb0000e8f40000U, 0x9e10002e7da0000U,
  0xeb000000ffdcf5U, 0xd3f7d90005f9f1U, 0xf20000eb000000U, 0x300e6000000003fU,
  0x16000000000600U, 0x11000def000U, 0xf3eb000002dc0000U, 0x10d0006beda0000U,
  0xdd00000014cf18U, 0x1dfed200ee12f7U, 0xb0000e6000000U, 0x2000c00000000dcU,
  0x1f00000000f600U, 0x1e000ae700U, 0xf2e0000008d70000U, 0x22a0015d0f60000U,
  0x35000000d1d40fU, 0x111efc00f1f6f2U, 0xc90000d6000000U, 0xf900f900000000fbU,
  0x4500000000d800U, 0xff0500e21700U, 0xfffc0000ef000000U, 0xfffb0003d6a30000U,
  0xe6000000f2d63aU, 0xf1c6be00e003e5U, 0xf000018000000U, 0x700f40000000008U,
  0x1100000000fc00U, 0xfa00e11c00U, 0xefdf0000d1e40000U, 0x3c002ce7e00000U,
  0xdf00000000e123U, 0xf7f1bc00fdfdbaU, 0xf3000001000000U, 0x300f80000000017U,
  0xb500000000ed00U, 0xff0200e2ce00U, 0xf5fe0000e9f80000U, 0x116001fe1fb0000U,
  0xe90000001dffffU, 0xf207150028ee0eU, 0x310000ea000000U, 0xf1000a0000000012U,
  0x4800000000ee00U, 0x2e600e61700U, 0x1fe0000d4050000U, 0xff0a00e8e42c0000U,
  0xe3000000c1e13cU, 0x291bcb00d7f2ceU, 0x2200000a000000U, 0x400fe0000000003U,
  0x81000000000200U, 0x2ee00fcde00U, 0xa0b0000c2f50000U, 0xe800f1f31a0000U,
  0xb4000000e4f91bU, 0x20f6fd00030411U, 0xf60000ea000000U, 0xf2000b00000000f6U,
  0xbb00000000f300U, 0xff130016d800U, 0xfa040000c4f90000U, 0x1c500f800000000U,
  0xe7000000fe11feU, 0xeed917002c0525U, 0x3f0000f1000000U, 0x9b00fa0000000001U,
  0xe00000000d600U, 0x3ea00c5d500U, 0x270a0000e7eb0000U, 0xffd800ccf6330000U,
  0xe4000000ef06feU, 0x1931fa00f80d1aU, 0xdd0000e2000000U, 0xe3000d00000000ebU,
  0xbf000000001000U, 0x3ed000bd400U, 0x1c110000dcf40000U, 0x2cf00ed051b0000U,
  0xf5000000ebfaf7U, 0x14170d00121519U, 0xf50000f0000000U, 0x400f900000000f3U,
  0xd5000000001700U, 0xff000009f300U, 0x1060000edf90000U, 0x2db00c70bf90000U,
  0xff000000fa08eeU, 0xe0fd150009fc03U, 0x7000019000000U, 0x1a003c0000000006U,
  0xb000000000f00U, 0x2f200d0dd00U, 0xef090000f5e70000U, 0x2ec00e6eaee0000U,
  0xe2000000fe0509U, 0xf7000b00d80f37U, 0xee000003000000U, 0xd6003400000000faU,
  0x2d000000000c00U, 0xfa00dadf00U, 0xf1f9000027e70000U, 0xfe1500b8c4e00000U,
  0xc9000000014c24U, 0xfaf50e00d3f61aU, 0xfa0000e9000000U, 0xe70024000000000bU,
  0x12000000000600U, 0xf400d0f000U, 0xff00000f2ec0000U, 0xfffb00eadef70000U,
  0x200000016fdf7U, 0xf71b1600d4e3f1U, 0x120000fc000000U, 0x2200b700000000efU,
  0x500000000f600U, 0x20100ea0100U, 0xdc07000021e40000U, 0x1d600e60bfd0000U,
  0xfe00000007c1f7U, 0xd40d11007f10a4U, 0xf80000f8000000U, 0x800d50000000000U,
  0x3a00000000f300U, 0x1f700faa800U, 0xdadf00003df50000U, 0xfc1400c6e7b80000U,
  0xfe000000f61606U, 0x2dffd0013edc7U, 0x150000f9000000U, 0x670000000007U,
  0x1a00000000eb00U, 0x207000fdd00U, 0xf0e600000ef90000U, 0xfde200dfdcd50000U,
  0xe800000017c404U, 0xe50d3e004ef6f0U, 0xf0000fc000000U, 0x1400a800000000e2U,
  0xd9000000000200U, 0x4f400fa0400U, 0x3ff000007f80000U, 0xfef20009f7260000U,
  0x1000000e51dc9U, 0xebfd06000315c6U, 0xf10000eb000000U, 0x1b00b400000000ddU,
  0xc000000001400U, 0x3f2000dcb00U, 0x1def000028f80000U, 0xfb2f0076f2f90000U,
  0xfc000000e035e0U, 0x9ece500e2f7d0U, 0x10000ef000000U, 0xf00d70000000007U,
  0xf600000000d800U, 0x207001bfe00U, 0xe6f700001c070000U, 0xfd0700e1fffd0000U,
  0xf6000000f5e401U, 0xd1f807001defe6U, 0x340000f4000000U, 0xfe00000000eeU,
  0xf000000001500U, 0xfff000cb1200U, 0x3e20000ec050000U, 0xfe3800edfbe80000U,
  0xfe000000cfb0f6U, 0xebe1fc00f90c25U, 0xc0000f8000000U, 0x900050000000006U,
  0x1100000000fc00U, 0x20600f6f100U, 0xf6e80000ede60000U, 0xfd2a001804e50000U,
  0xfc00000013d80cU, 0xfbf0db00faf305U, 0xf60000e9000000U, 0x1100f50000000030U,
  0xce00000000f500U, 0x2f800e8f000U, 0xd060000f2ed0000U, 0xfd0500f4f4f10000U,
  0xfb00000025ef13U, 0xf50825000eed12U, 0x1e000005000000U, 0x14000000000000fbU,
  0x41000000000b00U, 0x5d700d70500U, 0xdf90000d7ff0000U, 0xfd2b0018fd1a0000U,
  0xff000000813407U, 0xbe2cf000a12feU, 0xe8000017000000U, 0x400000000000007U,
  0x2d00000000fd00U, 0x4010007f700U, 0xf7f60000eef40000U, 0xfd32002105ed0000U,
  0xe700000003df00U, 0xebf9cf0000eee8U, 0xf50000fc000000U, 0xc00ee0000000019U,
  0xe500000000ea00U, 0x20c0009e100U, 0xfafe0000eded0000U, 0xfefd0011eee40000U,
  0x300000015e70cU, 0xee0e1c0001ef16U, 0xe40000eb000000U, 0x100ee0000000008U,
  0x5900000000fc00U, 0x7ef00cad900U, 0x54090000d9f10000U, 0xfb06000bde320000U,
  0xc2000000c224fcU, 0x4020de00052cfbU, 0xd60000f7000000U, 0xea00f600000000f8U,
  0x2000000001000U, 0x6ec0003c200U, 0x5140000f8ef0000U, 0xfdfc001b14fb0000U,
  0xe8000000fef4f8U, 0x923e700f9fef9U, 0xe90000f3000000U, 0xff00e80000000000U,
  0xe700000000f600U, 0x20d0014e300U, 0x20000f0e50000U, 0xfef000f900ee0000U,
  0x40000000bfc03U, 0xf507120008fd09U, 0xc70000e7000000U, 0xf7000600000000cdU,
  0xef00000000fb00U, 0xf704009dc100U, 0xf1070000ece10000U, 0x3ee00f7ffdb0000U,
  0xe20000001c030bU, 0xe70bb4000df802U, 0xbb0000d8000000U, 0xf800f100000000f6U,
  0xd600000000e800U, 0xf50c00b9b500U, 0xfad0000003d80000U, 0x3d400e0e1dc0000U,
  0xdb000000e70908U, 0xf61af100e6fd17U, 0xd80000d3000000U, 0xf500ec0000000000U,
  0xe100000000ef00U, 0xf40800b0d400U, 0xf3e90000fbe10000U, 0x2ca00ebc3f20000U,
  0xe2000000f314f0U, 0xebf12900f7f606U, 0xe20000e6000000U, 0xfb00140000000000U,
  0xa00000000f700U, 0xf8e800f5ba00U, 0x2f2e0000ef0a0000U, 0xf200f6fbbd0000U,
  0xe40000001bdc22U, 0x3401240046130aU, 0xdd000005000000U, 0x1900fc00000000f9U,
  0xc000000001100U, 0xf6ff00ed9300U, 0x16f7000029e80000U, 0x1ce00c6d3bd0000U,
  0xdf00000000e04fU, 0x4625340062187fU, 0xf30000fe000000U, 0x600c4000000002aU,
  0xff000000002500U, 0xf6fd00f4d000U, 0x3afa0000f6ec0000U, 0x1c800d9e4060000U,
  0x21f70aU, 0xf91f3900380b4cU, 0x90000fb000000U, 0x1200e5000000001bU,
  0xfa00000000fc00U, 0xf8f5001eeb00U, 0x32f8000020ea0000U, 0xe900e7ea000000U,
  0x1000000c0fd1eU, 0x1606d900e1143dU, 0xb00000d000000U, 0x32001e00000000eaU,
  0xfe000000002400U, 0xf8e400d9bd00U, 0x3ada000039e40000U, 0xfed000b0f3cf0000U,
  0xed000000bedb29U, 0x2bf8050036312aU, 0xfc0000f4000000U, 0x23005c0000000001U,
  0xf7000000002c00U, 0xfaf30018e200U, 0x1ce9000023ff0000U, 0xfdf100c9f2ec0000U,
  0xec000000cdda1fU, 0x201834004c0cebU, 0xca0000c3000000U, 0xfe001f00000000d2U,
  0x2900000000de00U, 0xf6df00bf3000U, 0xed1e0000124f0000U, 0xfd13000a82380000U,
  0x9b0000006829f6U, 0xe6c2c9001fe338U, 0x2b0000d2000000U, 0x24006300000000d1U,
  0x5300000000b900U, 0xf9d700352f00U, 0xd1cc0000f0300000U, 0xfb1c002a0e2b0000U,
  0x230000004f1cf8U, 0xe2e4470004ea15U, 0x210000f7000000U, 0x3001d00000000f3U,
  0x99000000001200U, 0xfbe300eaaa00U, 0x224b0000feda0000U, 0x3f200fb1df90000U,
  0x7000000fc0ff1U, 0x1b3d4c000006e0U, 0xc80000ee000000U, 0xe500f3000000004aU,
  0x2100000000fe00U, 0xfee100ae5300U, 0x8060000f01f0000U, 0xfde20011d0300000U,
  0x8100000057b938U, 0xfe4d500f6e6fdU, 0x5c0000d2000000U, 0xf400f300000000bcU,
  0x400000000ad00U, 0x3de00c1e300U, 0xec1b0000d1e40000U, 0xfb420032e6150000U,
  0x3100000014d907U, 0x131e800e40a09U, 0xfe0000ff000000U, 0xec00d500000000e2U,
  0xc300000000fe00U, 0xfffe00bc8e00U, 0xf272000000c30000U, 0x8d800f122ca0000U,
  0xa3000000e6bdefU, 0x1525dc00f109cdU, 0xe0000032000000U, 0xd00d0000000005cU,
  0xec000000003700U, 0xff0400c5e900U, 0x31a10000dfbe0000U, 0x11a00f4f50a0000U,
  0xa600000001fb30U, 0x18e0f900f217e8U, 0x10000ed000000U, 0x2400ff00000000d8U,
  0xf5000000002500U, 0x3110098aa00U, 0x18cc0000f2b50000U, 0xfdfc00f6c8ff0000U,
  0xef000000f7eaf7U, 0x2c27de00f41ae0U, 0x36000001000000U, 0xcc00d100000000c5U,
  0x78000000000c00U, 0xfd0b0037de00U, 0xed08000007e40000U, 0x9de00d107d90000U,
  0xa5000000c3d2f2U, 0x3622e800c709cbU, 0x21000000000000U, 0xfa00450000000019U,
  0xad000000000400U, 0x3ff00f2e000U, 0x1f1700001a050000U, 0x3e900e8df390000U,
  0x17000000310afeU, 0xeed8320021f3f2U, 0xd0000f5000000U, 0xed00ec00000000c3U,
  0x25000000000900U, 0x1fe00e7de00U, 0x41a0000f0ff0000U, 0x6c000c7f91c0000U,
  0x1000000c6fef3U, 0x32f2000effa0aU, 0x1f00001e000000U, 0xe9001b00000000d1U,
  0x3500000000ee00U, 0xfee200c31100U, 0xf7db000005fc0000U, 0x50c00d6e7130000U,
  0xe50000008103dcU, 0xe92ae200fde822U, 0x50000f6000000U, 0xde00f10000000016U,
  0xc1000000002b00U, 0x4160031cd00U, 0x4711000015fc0000U, 0x4db00eeede50000U,
  0x8000000f12bdeU, 0xf70f22000d0206U, 0xdc0000d6000000U, 0xdf00e60000000003U,
  0x3d00000000f200U, 0x2ef00efe400U, 0xd3120000fcfa0000U, 0x5d700caf9130000U,
  0xe7000000aac4f3U, 0xff3c0c00efcd0eU, 0x2600001d000000U, 0xda00470000000019U,
  0x15000000009900U, 0x1d400a00300U, 0x2f0b000009fc0000U, 0x65600eefd080000U,
  0xfd00000091eb0dU, 0xce59a700fdabfdU, 0xf50000f9000000U, 0xa00f000000000eaU,
  0xed000000005d00U, 0x1130026f200U, 0x33ef0000f8ee0000U, 0x5ed00f6fad50000U,
  0xed000000effad8U, 0xe7e51f00fcef02U, 0xec0000e2000000U, 0xd200fa000000003eU,
  0xec00000000dc00U, 0x2e700f6e800U, 0xbfd50000f8070000U, 0x5de00f8f80c0000U,
  0xde00000003ea27U, 0x2df8fc00db3226U, 0x140000fe000000U, 0xe10028000000000bU,
  0xd800000000d600U, 0x3db00d7ad00U, 0x26150000fa080000U, 0x40b00f003e30000U,
  0x9c000000e1e9f5U, 0x323ef3001cc40dU, 0x3d000008000000U, 0x41000800000000f6U,
  0xd000000000200U, 0xfce700be2600U, 0x11e30000dce50000U, 0x1ef0005f83e0000U,
  0x1c000000cdecfeU, 0xefffde000dfd10U, 0x56000013000000U, 0x15004a00000000d1U,
  0x7f000000000700U, 0xfdf600012900U, 0xe8f00000b8d70000U, 0x10e00eaee250000U,
  0x170000008c03ceU, 0xd7e2be00d41628U, 0xf0000fd000000U, 0xe4002600000000a3U,
  0x36000000002000U, 0xfdf200f0f800U, 0xf8f600004a000000U, 0xff7c0059c5f50000U,
  0xee0000009e19d2U, 0xf5c28d009a001eU, 0xf70000fd000000U, 0x4500ee00000000bdU,
  0xc800000000c800U, 0xfb0300d5f700U, 0xe0000000ecda0000U, 0xffe400d902410000U,
  0xf00000001110c7U, 0xe8ecf700e402e6U, 0xcc000013000000U, 0x2000cc00000000aeU,
  0xea00000000e100U, 0xfaf200ff2300U, 0xd6e700000dd70000U, 0xcd00cedbca0000U,
  0xf4000000ef2ac7U, 0xd8ddf200dd20f4U, 0xdf000003000000U, 0x10000500000000ffU,
  0xdb000000000600U, 0xfc0400f40500U, 0xfcb3000048030000U, 0xfdf6003ebecc0000U,
  0xc0000000e23ddU, 0xdea9b700f4edd1U, 0xed0000ea000000U, 0x200019000000000fU,
  0x13000000002a00U, 0xfafa00d59d00U, 0xf0e0000f6000000U, 0xffea00e9f7f70000U,
  0xea000000412f12U, 0x20280400423723U, 0xf70000d6000000U, 0x1300e6000000000eU,
  0x200000000e600U, 0xf8fe000ab500U, 0xebf900000bec0000U, 0xeb00dcf1e20000U,
  0xeb000000e5e542U, 0xf032ee00fae0e1U, 0xe50000ec000000U, 0x60005000000001cU,
  0x8000000001d00U, 0xfb0800eed800U, 0x2709000031f30000U, 0xfe05000dec080000U,
  0xd000000ffe80eU, 0xf11853004ca1e1U, 0xb500001f000000U, 0xfa000a00000000b0U,
  0xd300000000e300U, 0xfb000081c000U, 0xe3f1000006d30000U, 0x5e200fc17f80000U,
  0xd7000000031c02U, 0xc4e69d0014eff3U, 0x9d000010000000U, 0xa000000000000cdU,
  0xb900000000f200U, 0xfb0800a8cb00U, 0xeab5000009c30000U, 0x5be00f9b3f70000U,
  0xde000000f545ceU, 0xe3fcb10010f6e7U, 0xc800000e000000U, 0xfa00fe00000000edU,
  0xc600000000ec00U, 0xf800009b0a00U, 0xd9e3000003010000U, 0x4b800febaf00000U,
  0xd4000000e417cdU, 0xd1d80e001ee7d9U, 0xde0000f9000000U, 0x3000600000000f1U,
  0xe7000000002b00U, 0xfbea00e2b300U, 0x2d430000e9fb0000U, 0xff0700ec08e60000U,
  0xd40000004ce52bU, 0xea0c0000f4591dU, 0xe20000ee000000U, 0xe400f20000000018U,
  0xcd000000000700U, 0xf90800dacf00U, 0x5fa0000d7e10000U, 0x1e100dfc3c50000U,
  0xef000000fbee22U, 0x1bd1000f710fcU, 0xc60000f6000000U, 0x30000000037U,
  0xf6000000003500U, 0xf80200cbe800U, 0x22ef0000f2fb0000U, 0xf600e7e7f10000U,
  0xe00000000cf2e5U, 0xec435300ebd3f9U, 0x60000da000000U, 0xe50012000000001aU,
  0xf300000000cd00U, 0xfbd60023f400U, 0x410e0000f1fd0000U, 0xffff00eeda0f0000U,
  0x19000000f2ea5eU, 0x571a3d00cd2ae9U, 0x1f0000e0000000U, 0xff00f70000000006U,
  0xbc000000004e00U, 0xf8ff002a8e00U, 0x4fbf0000e1eb0000U, 0xfece00cecebf0000U,
  0x8000000c4cfefU, 0x1a13da00ff610fU, 0x120000ef000000U, 0xa00010000000024U,
  0xf4000000004000U, 0xf909000be300U, 0x4afa0000f4fe0000U, 0xfef400e2f4090000U,
  0xf5000000fcdd2bU, 0x57425d00eadfd0U, 0x1f0000e4000000U, 0xe8000d00000000c0U,
  0xd00000000ef00U, 0xfeef00d60d00U, 0xe9120000fcf90000U, 0xfcf600ece41c0000U,
  0xf800000015c407U, 0xf6ec1e0014ed14U, 0x2d0000e2000000U, 0xdc00e500000000d3U,
  0xf000000000a00U, 0xfb0700dd2300U, 0xe2f6000002f20000U, 0xfb0b00d7f7330000U,
  0x1000000ddbaccU, 0xeee8f8000deac7U, 0x380000f1000000U, 0xf200d50000000008U,
  0x29000000002800U, 0xfb0100bce000U, 0xf1db0000f6d80000U, 0xfbc9000df0d90000U,
  0xf700000001c801U, 0xe5f10a0009ed01U, 0xec0000ed000000U, 0xc400ea00000000e7U,
  0xa00000000e600U, 0xfd00fe2400U, 0xd30c00000af20000U, 0xfbe100f5f6450000U,
  0xee000000f5b7feU, 0xddeb1900f4f2bdU, 0x20000003000000U, 0x86009700000000f4U,
  0x59000000003b00U, 0x3ec00deef00U, 0x28de000001e30000U, 0xfbed00f7dd360000U,
  0x9000000dd45f0U, 0xfbfcd400c43198U, 0xee000018000000U, 0xe400b10000000015U,
  0x3f000000001c00U, 0x3030000ed00U, 0xe5f3000030e40000U, 0xf8fc0043d0ee0000U,
  0xf700000006d9f6U, 0xf1331b00e918e6U, 0x90000e8000000U, 0xb400ca0000000012U,
  0xd100000000e400U, 0x30f001a0d00U, 0xfae70000def30000U, 0xfacd0005e8290000U,
  0x1000000f5290cU, 0x62504000d11c8U, 0xcc0000f9000000U, 0x8100d30000000003U,
  0x4c000000000f00U, 0x7e200dc8d00U, 0x56ff0000eae30000U, 0xf7600026d8c30000U,
  0xbe000000d9320eU, 0x3c34df00e738dcU, 0xdc0000f4000000U, 0xe100ed0000000005U,
  0xc2000000000600U, 0x6000004d800U, 0x25030000e4ed0000U, 0xf3be003ff9f70000U,
  0xce000000f643f7U, 0x2e21fb00fdefe4U, 0x9d00001d000000U, 0xda00ec00000000c4U,
  0xa000000000c800U, 0xf8fa00b72100U, 0xc40f0000ef0a0000U, 0x1d300fab97a0000U,
  0xe5000000f0f52bU, 0xb0f39d00002ffaU, 0x60000f6000000U, 0xb800ce00000000abU,
  0x4600000000f200U, 0xf90000e1e100U, 0xcbb60000fdec0000U, 0x2b600add53e0000U,
  0xee000000f22e1cU, 0x126da00cf76d6U, 0x360000d8000000U, 0xfc00c200000000a9U,
  0x3c000000002c00U, 0xf9fe00d61300U, 0xb6100000e1ef0000U, 0x29c00a6e5c40000U,
  0xe50000000c21fcU, 0x314d7500ee22f7U, 0x9f0000dd000000U, 0xa400ec00000000f3U,
  0xfe00000000c900U, 0xfc13001aca00U, 0x15e1000021ee0000U, 0xfc14003802d10000U,
  0x2100000034ff48U, 0xe20ba3000d460cU, 0xda0000ee000000U, 0xa700fd00000000d5U,
  0x45000000005500U, 0xfef3009cac00U, 0x89ce000004da0000U, 0xfe57002ce8c90000U,
  0xfc0000002df323U, 0x5909d600d677fcU, 0x6e000001000000U, 0xe000e30000000094U,
  0x1d000000000200U, 0xfeda00dfe000U, 0x81d90000cdf90000U, 0xff2300f2d9c70000U,
  0xc4000000c5f6e6U, 0x6c243100d42effU, 0xef0000e3000000U, 0xdc00f5000000002aU,
  0x600000000d400U, 0x3ee00e5c100U, 0x6fcc0000eed80000U, 0xfc490011f8c00000U,
  0x17000000cc005cU, 0xba18fe0000b80eU, 0xea0000e2000000U, 0xd700e600000000e2U,
  0xe1000000007700U, 0x5cb00c3f200U, 0x58e00000c9e90000U, 0xfc130005c6da0000U,
  0xfb000000a9f5ebU, 0xc922110009c504U, 0x300000e0000000U, 0xc800e000000000daU,
  0xcc000000004c00U, 0x2d00005fe00U, 0xd3e40000c82a0000U, 0x140014f6dc0000U,
  0xf2000000cee3c0U, 0xe6bbf8000b3d08U, 0x5000005000000U, 0xd200d500000000c7U,
  0x24000000005000U, 0xfffd00ce9f00U, 0x7ad0000f2f40000U, 0xfd2c00160fc20000U,
  0x100000041194aU, 0xd3d3a80005e0beU, 0x1f000005000000U, 0xdd000100000000c2U,
  0x1e000000000a00U, 0xfcdd00cf0600U, 0xf6ef0000f5ef0000U, 0xfc31002efa130000U,
  0xe7000000d7cbccU, 0xdce8e00f7e502U, 0x4e0000f5000000U, 0xd600e70000000081U,
  0xd00000000d500U, 0xfc0700030600U, 0xd2e30000ff0c0000U, 0xfe1d001bd6040000U,
  0xf0000000dc31b5U, 0x103c1900e54e27U, 0xe9000000000000U, 0x2d00e90000000042U,
  0x31000000004d00U, 0x8e900baa500U, 0x59ad0000d5d50000U, 0xfb540003f0f60000U,
  0xa000000f01c4aU, 0xcdc2d0001daddfU, 0xf7000002000000U, 0xda000700000000c0U,
  0xe8000000006b00U, 0x4de00c01b00U, 0x28df0000c1f20000U, 0xfc1f001de20a0000U,
  0xfe000000f0f4bbU, 0xbeac96000dccfdU, 0x8b0000ec000000U, 0xaf00d800000000deU,
  0x2100000000d300U, 0x1f100d90800U, 0xaee90000edfc0000U, 0xfff3000be54e0000U,
  0xeb000000b1e3a7U, 0x2ce5ce000e75f7U, 0x1000006000000U, 0x1b00210000000007U,
  0xfe000000001200U, 0x7f500d60200U, 0x60be0000d9df0000U, 0xfcf900e70afa0000U,
  0x5000000abed06U, 0x94daeb00f5a402U, 0x90000e8000000U, 0xe0007000000000aU,
  0xea000000000e00U, 0x5e200dbf600U, 0x26d20000c1e80000U, 0xfbed000c01d90000U,
  0x40000000daecd5U, 0xc0e0ee00f5d6feU, 0x5c0000c4000000U, 0xe2003100000000e1U,
  0xf000000000ee00U, 0x4e900c9f700U, 0xbd060000f8ff0000U, 0xfec500e3101f0000U,
  0x1c000000ed22cdU, 0xfd240e000f540eU, 0x19000000000000U, 0xe100030000000084U,
  0x29000000000100U, 0xf6dc00b00f00U, 0xbcde0000fafe0000U, 0xffe500f302fb0000U,
  0xd9000000ca1be4U, 0xe3d6a700f9fa35U, 0xf2000005000000U, 0x6004b00000000e1U,
  0xbc00000000c800U, 0xf91400ebc900U, 0xe4ec0000faf60000U, 0x130026e8ac0000U,
  0xf80000000e142aU, 0xe3d9160017f929U, 0xb40000e2000000U, 0x12000a00000000b0U,
  0xcb000000000c00U, 0xf80b0015b300U, 0xccf30000ec010000U, 0x5010047bedd0000U,
  0x2d0000002ee640U, 0x1ae61e00131a02U, 0x75000019000000U, 0xd7001400000000f9U,
  0x5300000000b600U, 0xfcdb00e92e00U, 0xee110000fee90000U, 0x20900d6e7430000U,
  0xf70000009de11eU, 0xe43f9500e6d3ceU, 0xc000009000000U, 0xf900110000000016U,
  0x8c00000000e500U, 0xfd0700eefd00U, 0x33040000d7f40000U, 0x3ad00f0e1f00000U,
  0x15000000010e4aU, 0xdc05fb001c0807U, 0xd80000d1000000U, 0x2b00d300000000fcU,
  0xc6000000004800U, 0xfd0200efe800U, 0xd3020000c7f00000U, 0x6ab00c4f5e60000U,
  0xeb00000035f5f8U, 0x50e72c00197401U, 0x330000ee000000U, 0xe500fe000000001cU,
  0x2e000000009a00U, 0xfdda00f7e600U, 0x3d0e0000e0f30000U, 0x11900e5ff1f0000U,
  0xd2000000bfde51U, 0x2752dd00d698e9U, 0xfd0000e4000000U, 0xf500de00000000dbU,
  0xc8000000000800U, 0xfdf100e71700U, 0x7f2d0000c7dd0000U, 0x2e6008d0efe0000U,
  0x14000000c7fc3bU, 0xbc270d00f7cef3U, 0xf40000e2000000U, 0x1800e20000000003U,
  0xd3000000003e00U, 0xfdf100b9ec00U, 0xddc0000dee50000U, 0x3cd00a6f3080000U,
  0xfb0000000ff9cfU, 0x16e80f00064a00U, 0x20000f7000000U, 0xee00ea00000000ddU,
  0x1a00000000eb00U, 0xfd0d00e9f100U, 0xf3b40000ec040000U, 0x1f900f30ba70000U,
  0xf7000000fa05e9U, 0x4002600f3f739U, 0xac0000e6000000U, 0xec00d100000000edU,
  0xc0000000001500U, 0x3080005c900U, 0xfd0e000005fc0000U, 0xff1c0009cab20000U,
  0xfe0000002ade10U, 0x6f703002301eaU, 0xe10000f4000000U, 0x6002c0000000018U,
  0x32000000000800U, 0x1d900fc0900U, 0xfb170000000b0000U, 0x36002db90e0000U,
  0x170000000cf333U, 0xe3d4cb00fcf2daU, 0x65000009000000U, 0xdd002200000000eaU,
  0x5d000000009c00U, 0xfde700df3e00U, 0xc7a60000d6fc0000U, 0x2f600f7d5e80000U,
  0x17000000b3e1ebU, 0xfa39c900bfcf26U, 0x1f00000f000000U, 0xfb00e2000000000dU,
  0x8100000000de00U, 0x3030006d700U, 0xfedb0000e8e60000U, 0x2e000f1f0da0000U,
  0xf20000000de908U, 0x1df800ff14d3U, 0xef0000e9000000U, 0x1000e40000000045U,
  0x98000000004400U, 0x4fa00eedb00U, 0x452000000bf40000U, 0x930013d2f00000U,
  0xfc000000f8f734U, 0x15d7ea000116f1U, 0x460000e7000000U, 0x30000e00000000e1U,
  0x2900000000dc00U, 0xfde900dde000U, 0xdfa0000d3ea0000U, 0x2e300c2ea420000U,
  0x19000000ccf104U, 0x2041eb00f9fbe2U, 0x10000008000000U, 0x2100ce00000000dbU,
  0x9d000000001600U, 0x2040009c000U, 0xd0f0000f1d40000U, 0x5a500b227ef0000U,
  0x6000000e712edU, 0xff251f00f212d5U, 0xf100000c000000U, 0x4400f900000000f7U,
  0xbb000000001b00U, 0x21300f0d200U, 0x2803000026ea0000U, 0x2bf0096ed0a0000U,
  0xfe000000e904f6U, 0xff019000b18e5U, 0x1a000009000000U, 0xf3001300000000ecU,
  0xd5000000000d00U, 0xfefb00d0f500U, 0x28500001dfa0000U, 0x1e500ce12150000U,
  0xa000000de070cU, 0xbd1b1800051705U, 0xd20000f3000000U, 0x16000e00000000bdU,
  0xcf000000002400U, 0x1f3001bf400U, 0xf8fc00001be50000U, 0x1b300be1ffd0000U,
  0x5000000d60cdfU, 0xdd0621000bf403U, 0xfe000000000000U, 0x1100030000000081U,
  0x9000000003d00U, 0xfce900e1f600U, 0x3d40000f9ec0000U, 0x215001b0feb0000U,
  0xc000000cffbe1U, 0xe0e9da0011df23U, 0x50000fd000000U, 0xd8000000000000fdU,
  0xfb000000005c00U, 0xfd0100e1f400U, 0x5ef7000052030000U, 0x2cc00caf3e20000U,
  0x22000000e638e1U, 0xc944040005e2fdU, 0xca0000f8000000U, 0x900f300000000d6U,
  0xf7000000000a00U, 0xff1100f2f000U, 0xe819000004fa0000U, 0x2f300eef1cb0000U,
  0xa0000000edf10U, 0x60f00001f2e09U, 0xe400000e000000U, 0x45004f00000000a5U,
  0x14000000000800U, 0xfb0900f30200U, 0xe6e70000e3f30000U, 0x2240041e9f30000U,
  0x1000000011eb0fU, 0x3f510000fe917U, 0x4900000e000000U, 0xda00e500000000e4U,
  0x1c000000000a00U, 0xffd400891d00U, 0x30cc0000e4eb0000U, 0x5e200ecf20b0000U,
  0xd1000000b514f5U, 0xd65bd800f2ceedU, 0xea00000c000000U, 0xd400f10000000010U,
  0x2600000000cb00U, 0xe800c8fd00U, 0xb6ed0000ea010000U, 0x60d00f6f9df0000U,
  0xd6000000c60a1dU, 0xce1b800f53bf3U, 0xe30000f7000000U, 0xe400e7000000000eU,
  0x1100000000e900U, 0xfe00f3ef00U, 0xb6060000c10a0000U, 0x7330024e5e10000U,
  0xa500000006e827U, 0x51e5f9000738f4U, 0x13000001000000U, 0x1500d2000000009fU,
  0xf5000000001100U, 0xfaf700b7cd00U, 0x10e00000ee280000U, 0x5190005ca0b0000U,
  0x55000000cc0b1eU, 0x2e22e6000a0f02U, 0xd70000e0000000U, 0x1f0027000000009bU,
  0xfa000000000000U, 0xfc040029d500U, 0xe5b40000eef70000U, 0xfee600f305130000U,
  0xf50000003e4e0dU, 0xfa1d2b00ef153dU, 0xf80000f1000000U, 0x17002500000000d8U,
  0xff000000002f00U, 0xfefc00d7d400U, 0x39bd0000e3ee0000U, 0x2dd000019160000U,
  0x3c000000e31808U, 0x1d3730001015d6U, 0xf20000f5000000U, 0xb001e0000000020U,
  0xe6000000001c00U, 0xfce000df2900U, 0xd40c0000072a0000U, 0xe300f4cb1c0000U,
  0xce000000ec0cf0U, 0xfffae40013f7efU, 0xdf0000bd000000U, 0xf3002b00000000baU,
  0x700000000cd00U, 0xfddb000b0300U, 0xdeb40000e9030000U, 0xfc0c001dda1a0000U,
  0xfe000000173001U, 0x3d41a0012e93fU, 0xe00000e5000000U, 0x8002d0000000005U,
  0xf6000000000200U, 0xfff000f6d500U, 0xe370000f0d90000U, 0x20b00211edf0000U,
  0xd8000000061cebU, 0x3e9fe002708e2U, 0x9000028000000U, 0xc400ed000000006bU,
  0xe2000000000a00U, 0xfce900092300U, 0xf8eb0000e90e0000U, 0x5db00e9e8fb0000U,
  0xb100000003faf5U, 0x180fea000dfee3U, 0x120000f2000000U, 0xca00f600000000ebU,
  0x1500000000f800U, 0xec00c5ee00U, 0x16ee0000f1cb0000U, 0x10b000fc50f0000U,
  0x810000000a07f9U, 0x1fffb10015e1f9U, 0xf9000014000000U, 0xe600d600000000f2U,
  0xe2000000001900U, 0x1300fbdc00U, 0x2590000c7e20000U, 0x50b0010f0d90000U,
  0x81000000e4f7f4U, 0x120ae100090de0U, 0x200000f0000000U, 0xf700ef0000000007U,
  0x3600000000f200U, 0xfeed00cfe700U, 0xed0c0000f8f80000U, 0x40300da10e50000U,
  0xbc0000000a0a18U, 0xf3f61f00b9f054U, 0x1f0000e6000000U, 0x75004900000000e4U,
